<pad>	0
<s>	0
</s>	0
<unk>	0
▁t	-0
▁a	-1
en	-2
er	-3
in	-4
▁s	-5
▁o	-6
▁th	-7
▁f	-8
et	-9
▁d	-10
on	-11
an	-12
ar	-13
▁m	-14
is	-15
at	-16
re	-17
▁the	-18
▁p	-19
ll	-20
om	-21
▁b	-22
it	-23
▁in	-24
or	-25
▁h	-26
ion	-27
▁w	-28
▁c	-29
st	-30
ör	-31
tt	-32
▁n	-33
ing	-34
▁v	-35
ed	-36
nd	-37
▁e	-38
▁i	-39
ro	-40
ch	-41
es	-42
al	-43
ig	-44
ent	-45
▁of	-46
▁att	-47
▁to	-48
▁k	-49
▁u	-50
▁för	-51
är	-52
▁g	-53
▁l	-54
▁and	-55
▁re	-56
am	-57
▁och	-58
ag	-59
de	-60
ou	-61
as	-62
ill	-63
▁det	-64
▁de	-65
▁be	-66
um	-67
▁en	-68
ka	-69
ve	-70
▁st	-71
na	-72
ic	-73
le	-74
▁som	-75
▁eu	-76
▁vi	-77
omm	-78
▁av	-79
ation	-80
▁r	-81
pe	-82
kt	-83
ut	-84
ot	-85
▁is	-86
▁fr	-87
▁that	-88
id	-89
pp	-90
ra	-91
ct	-92
▁int	-93
lig	-94
ol	-95
▁for	-96
▁är	-97
ur	-98
▁till	-99
se	-100
▁pro	-101
▁med	-102
▁euro	-103
and	-104
▁an	-105
ning	-106
il	-107
▁om	-108
▁on	-109
ck	-110
▁wh	-111
▁num	-112
än	-113
▁den	-114
em	-115
ver	-116
▁we	-117
ort	-118
ly	-119
▁it	-120
sion	-121
iv	-122
ter	-123
▁på	-124
▁europe	-125
ta	-126
res	-127
ande	-128
ld	-129
▁har	-130
för	-131
▁con	-132
▁ha	-133
▁this	-134
▁ut	-135
▁all	-136
ce	-137
ens	-138
▁komm	-139
▁as	-140
ätt	-141
el	-142
ul	-143
ri	-144
▁inte	-145
ission	-146
ett	-147
▁par	-148
het	-149
ad	-150
▁are	-151
li	-152
▁comm	-153
un	-154
ess	-155
ith	-156
änd	-157
▁ett	-158
ere	-159
ment	-160
▁with	-161
ån	-162
år	-163
ci	-164
ow	-165
▁un	-166
sk	-167
iska	-168
os	-169
erna	-170
ate	-171
ak	-172
mp	-173
ers	-174
▁not	-175
ru	-176
ga	-177
ould	-178
ik	-179
ble	-180
▁or	-181
ir	-182
▁have	-183
▁su	-184
▁y	-185
▁sk	-186
all	-187
ans	-188
ff	-189
▁ne	-190
sl	-191
ust	-192
▁se	-193
ament	-194
ay	-195
ant	-196
op	-197
▁ö	-198
▁whi	-199
ity	-200
ell	-201
▁res	-202
▁var	-203
ive	-204
der	-205
▁which	-206
ist	-207
▁al	-208
äll	-209
im	-210
oun	-211
ste	-212
th	-213
▁european	-214
▁by	-215
▁sam	-216
▁upp	-217
are	-218
▁detta	-219
åg	-220
▁reg	-221
ore	-222
▁pol	-223
ts	-224
▁sh	-225
▁will	-226
▁bet	-227
▁fin	-228
▁må	-229
▁pres	-230
ber	-231
isk	-232
▁so	-233
▁und	-234
åd	-235
ade	-236
od	-237
ull	-238
ies	-239
▁coun	-240
ud	-241
us	-242
▁my	-243
▁ar	-244
ern	-245
▁kan	-246
▁di	-247
if	-248
▁commission	-249
▁has	-250
bet	-251
▁kommission	-252
▁mr	-253
ions	-254
▁man	-255
▁fa	-256
▁fram	-257
▁imp	-258
our	-259
▁do	-260
▁min	-261
end	-262
▁å	-263
igh	-264
ect	-265
man	-266
liga	-267
▁le	-268
err	-269
▁kommer	-270
äl	-271
▁union	-272
▁ver	-273
ligt	-274
äm	-275
▁gen	-276
ord	-277
äg	-278
▁stat	-279
ure	-280
▁kon	-281
port	-282
▁there	-283
▁under	-284
itt	-285
so	-286
pa	-287
▁com	-288
▁måste	-289
ser	-290
gr	-291
▁am	-292
sta	-293
ss	-294
▁ska	-295
ms	-296
ue	-297
var	-298
▁me	-299
▁presid	-300
ering	-301
▁at	-302
▁fö	-303
▁part	-304
▁över	-305
ry	-306
onom	-307
▁när	-308
att	-309
cial	-310
fter	-311
▁sy	-312
▁ch	-313
▁dem	-314
▁tal	-315
du	-316
era	-317
lar	-318
og	-319
▁där	-320
orm	-321
la	-322
si	-323
ven	-324
ult	-325
▁would	-326
▁rätt	-327
pport	-328
▁can	-329
▁also	-330
▁så	-331
▁men	-332
▁vill	-333
▁från	-334
▁dess	-335
▁president	-336
num	-337
ard	-338
ark	-339
igt	-340
▁our	-341
ution	-342
cks	-343
ling	-344
amm	-345
▁pr	-346
red	-347
ations	-348
▁should	-349
lament	-350
▁ta	-351
▁tr	-352
▁polit	-353
▁europeiska	-354
▁mem	-355
ningen	-356
▁but	-357
lo	-358
▁ad	-359
vis	-360
▁ag	-361
und	-362
ets	-363
▁wor	-364
▁from	-365
slag	-366
öd	-367
▁co	-368
ast	-369
ller	-370
▁go	-371
ighet	-372
▁sig	-373
▁herr	-374
▁beh	-375
▁vil	-376
▁ab	-377
rä	-378
ring	-379
ft	-380
▁ac	-381
▁must	-382
get	-383
rat	-384
ally	-385
▁comp	-386
bil	-387
▁efter	-388
andet	-389
▁skull	-390
liament	-391
▁mot	-392
▁parliament	-393
ckså	-394
▁också	-395
cess	-396
ång	-397
ns	-398
ge	-399
▁lik	-400
▁skulle	-401
sa	-402
form	-403
ok	-404
▁denna	-405
▁genom	-406
▁arbet	-407
stat	-408
▁been	-409
ish	-410
▁you	-411
eri	-412
▁kommissionen	-413
▁count	-414
vel	-415
par	-416
cket	-417
lut	-418
ake	-419
änk	-420
▁någ	-421
bl	-422
▁hel	-423
▁cont	-424
sp	-425
ous	-426
▁report	-427
▁mycket	-428
out	-429
▁sin	-430
▁alla	-431
▁gör	-432
iga	-433
da	-434
reat	-435
ligen	-436
▁str	-437
arna	-438
▁more	-439
▁gru	-440
▁eff	-441
▁states	-442
kap	-443
▁bar	-444
▁us	-445
▁vis	-446
▁pos	-447
▁spe	-448
cil	-449
min	-450
ther	-451
▁prop	-452
▁member	-453
ition	-454
▁app	-455
▁dire	-456
▁inst	-457
ktiv	-458
▁mark	-459
▁inc	-460
ary	-461
▁åt	-462
gh	-463
▁ä	-464
som	-465
▁ny	-466
▁medle	-467
▁was	-468
ement	-469
▁need	-470
▁proble	-471
▁vikt	-472
pt	-473
iti	-474
åll	-475
▁righ	-476
▁ma	-477
ella	-478
ew	-479
▁mo	-480
▁te	-481
änn	-482
▁dis	-483
ical	-484
▁parlament	-485
▁social	-486
▁sä	-487
▁pe	-488
▁dessa	-489
▁its	-490
▁he	-491
▁these	-492
ank	-493
rag	-494
▁import	-495
ence	-496
▁råd	-497
tid	-498
nad	-499
▁gäll	-500
▁intern	-501
ance	-502
▁they	-503
▁pl	-504
▁po	-505
ger	-506
▁like	-507
▁who	-508
▁if	-509
yd	-510
▁vara	-511
rou	-512
stem	-513
▁their	-514
▁no	-515
▁ord	-516
▁pre	-517
▁er	-518
▁deb	-519
tal	-520
▁bör	-521
▁europa	-522
▁work	-523
▁andra	-524
▁act	-525
▁council	-526
▁eller	-527
▁talman	-528
▁what	-529
▁how	-530
▁nu	-531
▁mö	-532
▁vid	-533
itet	-534
▁polic	-535
oc	-536
ational	-537
▁medlems	-538
▁cons	-539
ress	-540
her	-541
▁very	-542
▁fråg	-543
▁även	-544
▁bec	-545
▁ec	-546
▁gäller	-547
cy	-548
vänd	-549
▁medlemsstat	-550
au	-551
▁ind	-552
▁här	-553
▁conc	-554
▁one	-555
▁mil	-556
▁bud	-557
▁betänk	-558
▁propos	-559
▁år	-560
int	-561
itu	-562
ries	-563
▁ra	-564
emens	-565
fore	-566
▁oss	-567
ne	-568
▁tim	-569
▁gemens	-570
▁ro	-571
▁ob	-572
▁sa	-573
ces	-574
org	-575
ker	-576
ats	-577
del	-578
ument	-579
▁verk	-580
vent	-581
▁produ	-582
konom	-583
gär	-584
veck	-585
ose	-586
▁agre	-587
erg	-588
▁trans	-589
▁utan	-590
▁vår	-591
ced	-592
ningar	-593
▁därför	-594
one	-595
▁dec	-596
ear	-597
▁out	-598
▁änd	-599
▁countries	-600
råd	-601
lighet	-602
▁inom	-603
ma	-604
sel	-605
ee	-606
art	-607
▁problem	-608
▁other	-609
ments	-610
ap	-611
ice	-612
ual	-613
▁peop	-614
▁förslag	-615
▁bes	-616
ia	-617
▁del	-618
▁ekonom	-619
ong	-620
ise	-621
▁finns	-622
åga	-623
iskt	-624
velop	-625
unkt	-626
▁situ	-627
▁budget	-628
▁utveck	-629
ov	-630
▁tra	-631
▁new	-632
fer	-633
▁up	-634
▁skall	-635
oll	-636
▁sp	-637
▁la	-638
▁develop	-639
▁support	-640
▁about	-641
pect	-642
▁grund	-643
ities	-644
ism	-645
ket	-646
▁mer	-647
▁kun	-648
▁förs	-649
ause	-650
▁hand	-651
land	-652
anden	-653
▁situation	-654
▁stöd	-655
ond	-656
▁econom	-657
▁important	-658
▁inform	-659
eras	-660
▁led	-661
▁tid	-662
▁policy	-663
ateg	-664
öst	-665
▁only	-666
▁ser	-667
ellan	-668
▁year	-669
▁leg	-670
ris	-671
▁op	-672
▁sätt	-673
▁rec	-674
ie	-675
▁system	-676
▁göra	-677
▁sec	-678
skil	-679
▁time	-680
sför	-681
▁mellan	-682
▁eftersom	-683
vi	-684
▁bara	-685
▁partic	-686
rit	-687
arbet	-688
able	-689
age	-690
▁allt	-691
▁people	-692
▁ni	-693
▁få	-694
gain	-695
ated	-696
▁because	-697
uest	-698
▁vär	-699
▁again	-700
▁iss	-701
ämp	-702
▁vot	-703
▁dag	-704
cip	-705
gen	-706
itution	-707
▁prot	-708
ativ	-709
▁tv	-710
▁ho	-711
▁fir	-712
▁pers	-713
ase	-714
ip	-715
▁energ	-716
ular	-717
far	-718
▁gr	-719
gan	-720
▁proposal	-721
▁sub	-722
ende	-723
▁ordför	-724
▁fråga	-725
tain	-726
olution	-727
▁now	-728
▁ty	-729
ach	-730
▁rep	-731
▁förb	-732
▁lag	-733
▁vå	-734
ien	-735
urr	-736
änder	-737
we	-738
▁em	-739
lear	-740
▁fund	-741
▁stor	-742
ink	-743
▁vad	-744
ction	-745
håll	-746
ställ	-747
bility	-748
ott	-749
▁rights	-750
▁åtgär	-751
▁ber	-752
äng	-753
igheter	-754
▁such	-755
▁any	-756
ever	-757
▁them	-758
▁anser	-759
▁committ	-760
incip	-761
▁progr	-762
▁ans	-763
▁sär	-764
ors	-765
▁parlamentet	-766
ind	-767
▁mig	-768
lag	-769
▁region	-770
vid	-771
ures	-772
va	-773
▁therefore	-774
▁än	-775
▁full	-776
olit	-777
▁hum	-778
▁unionen	-779
▁rådet	-780
▁bli	-781
▁off	-782
▁when	-783
ks	-784
▁särskil	-785
isation	-786
ome	-787
ass	-788
▁however	-789
▁utveckling	-790
▁first	-791
vär	-792
ift	-793
ine	-794
äns	-795
▁nat	-796
▁human	-797
amp	-798
▁organ	-799
ial	-800
nar	-801
▁some	-802
▁those	-803
▁val	-804
▁particular	-805
▁slut	-806
▁take	-807
med	-808
▁väl	-809
▁inne	-810
ang	-811
▁commun	-812
▁bas	-813
led	-814
▁kunna	-815
ska	-816
▁make	-817
▁say	-818
▁direct	-819
▁vilket	-820
ster	-821
▁into	-822
▁hur	-823
val	-824
ween	-825
▁between	-826
▁diff	-827
eg	-828
ala	-829
ubl	-830
roup	-831
ues	-832
▁acc	-833
lie	-834
▁group	-835
▁tur	-836
▁amend	-837
▁red	-838
▁economic	-839
▁fact	-840
eration	-841
ppen	-842
▁sm	-843
ånd	-844
▁ändring	-845
▁eus	-846
▁strateg	-847
▁agreement	-848
ree	-849
▁princip	-850
str	-851
▁rel	-852
▁person	-853
nings	-854
▁clear	-855
▁säker	-856
▁våra	-857
ner	-858
▁being	-859
olitik	-860
sible	-861
ånga	-862
ister	-863
now	-864
skott	-865
fr	-866
▁tak	-867
▁nya	-868
▁föret	-869
▁way	-870
▁end	-871
▁per	-872
▁belie	-873
rätt	-874
▁information	-875
▁inför	-876
▁åter	-877
nas	-878
ight	-879
▁si	-880
▁pri	-881
ative	-882
▁over	-883
▁appro	-884
ency	-885
▁committee	-886
▁ge	-887
▁beslut	-888
ire	-889
ationella	-890
▁dra	-891
▁far	-892
▁ann	-893
ite	-894
borg	-895
▁rapport	-896
▁inv	-897
amma	-898
day	-899
▁får	-900
▁cour	-901
▁resp	-902
ved	-903
gör	-904
▁åtgärder	-905
komm	-906
sätt	-907
ublic	-908
▁först	-909
lu	-910
▁många	-911
▁mat	-912
▁made	-913
▁ens	-914
yn	-915
erar	-916
▁political	-917
▁mon	-918
bb	-919
vern	-920
ural	-921
▁hö	-922
▁använd	-923
ards	-924
lement	-925
ific	-926
ating	-927
▁behö	-928
åt	-929
▁programm	-930
▁frågor	-931
▁were	-932
▁best	-933
▁ur	-934
▁lö	-935
▁def	-936
pl	-937
▁betänkande	-938
▁resolution	-939
▁many	-940
▁result	-941
hand	-942
bru	-943
rå	-944
▁ant	-945
▁finan	-946
fatt	-947
▁than	-948
numnum	-949
cent	-950
eng	-951
ost	-952
▁genomför	-953
ian	-954
vin	-955
▁giv	-956
▁han	-957
gång	-958
▁want	-959
▁liv	-960
▁know	-961
▁form	-962
▁market	-963
bar	-964
▁believe	-965
▁commissioner	-966
ough	-967
ving	-968
▁god	-969
▁development	-970
parlament	-971
okrat	-972
ägg	-973
olk	-974
▁ever	-975
▁före	-976
▁första	-977
icult	-978
▁think	-979
▁disk	-980
▁disc	-981
▁europaparlament	-982
▁initi	-983
ict	-984
▁li	-985
▁process	-986
yg	-987
▁against	-988
kter	-989
▁protect	-990
▁land	-991
sförslag	-992
▁see	-993
▁fru	-994
▁fall	-995
▁särskilt	-996
▁föl	-997
ier	-998
▁concern	-999
▁add	-1000
cka	-1001
▁citi	-1002
▁medlemsstaterna	-1003
▁sol	-1004
tro	-1005
▁point	-1006
▁great	-1007
▁even	-1008
▁terr	-1009
▁.	-1010
▁meas	-1011
▁govern	-1012
act	-1013
rough	-1014
av	-1015
▁vet	-1016
▁right	-1017
▁ytt	-1018
▁männ	-1019
ings	-1020
▁national	-1021
▁treat	-1022
▁indust	-1023
▁debate	-1024
▁tw	-1025
▁respon	-1026
▁något	-1027
▁kom	-1028
▁emp	-1029
▁föred	-1030
▁fl	-1031
▁democ	-1032
▁public	-1033
eral	-1034
uestion	-1035
▁medborg	-1036
ick	-1037
▁säga	-1038
▁inve	-1039
▁människ	-1040
▁ställ	-1041
▁länder	-1042
▁cent	-1043
est	-1044
ack	-1045
its	-1046
▁mål	-1047
▁ändringsförslag	-1048
kra	-1049
▁speci	-1050
▁well	-1051
▁samarbet	-1052
▁viktigt	-1053
akt	-1054
▁ri	-1055
▁good	-1056
ret	-1057
ention	-1058
▁gu	-1059
utions	-1060
▁ent	-1061
▁sen	-1062
▁where	-1063
▁sina	-1064
▁finans	-1065
rik	-1066
ernas	-1067
▁br	-1068
▁bek	-1069
▁effe	-1070
▁redan	-1071
▁effect	-1072
bers	-1073
▁cer	-1074
opt	-1075
ef	-1076
▁incre	-1077
▁thank	-1078
▁män	-1079
drag	-1080
▁years	-1081
stru	-1082
▁föredrag	-1083
▁någon	-1084
ices	-1085
▁konk	-1086
wn	-1087
▁issue	-1088
▁aut	-1089
▁regul	-1090
▁invest	-1091
▁adopt	-1092
ämm	-1093
▁frågan	-1094
erade	-1095
▁marknad	-1096
read	-1097
▁ins	-1098
vir	-1099
▁today	-1100
lob	-1101
▁ass	-1102
rib	-1103
▁high	-1104
pel	-1105
▁glob	-1106
▁decis	-1107
▁ekonomiska	-1108
▁order	-1109
▁ansvar	-1110
▁pla	-1111
eth	-1112
▁då	-1113
ys	-1114
ently	-1115
▁does	-1116
▁consid	-1117
▁neg	-1118
▁country	-1119
▁aff	-1120
▁företag	-1121
▁world	-1122
▁art	-1123
▁bef	-1124
▁utskott	-1125
▁mu	-1126
▁rättigheter	-1127
▁ordförande	-1128
▁fakt	-1129
▁kommissionens	-1130
▁utt	-1131
cept	-1132
▁regard	-1133
onment	-1134
▁here	-1135
öm	-1136
▁föres	-1137
▁näm	-1138
▁håll	-1139
▁fut	-1140
▁every	-1141
▁coop	-1142
men	-1143
ten	-1144
▁pra	-1145
▁prior	-1146
▁future	-1147
▁värld	-1148
▁posit	-1149
ken	-1150
▁present	-1151
▁contin	-1152
not	-1153
▁envir	-1154
▁områd	-1155
oth	-1156
ited	-1157
▁debatt	-1158
▁two	-1159
ild	-1160
loy	-1161
▁plan	-1162
▁use	-1163
▁environment	-1164
▁några	-1165
te	-1166
olog	-1167
▁level	-1168
▁helt	-1169
▁vä	-1170
▁same	-1171
stift	-1172
▁sv	-1173
▁community	-1174
ydd	-1175
▁members	-1176
▁most	-1177
▁view	-1178
▁measures	-1179
▁sitt	-1180
▁regering	-1181
▁stör	-1182
▁cannot	-1183
amot	-1184
ised	-1185
▁tro	-1186
▁transport	-1187
les	-1188
▁international	-1189
lägg	-1190
▁sed	-1191
andel	-1192
▁could	-1193
▁ele	-1194
▁mis	-1195
▁financial	-1196
▁eg	-1197
▁kra	-1198
me	-1199
▁politik	-1200
▁främ	-1201
ety	-1202
▁samman	-1203
▁krä	-1204
▁integr	-1205
▁risk	-1206
▁stru	-1207
lud	-1208
slut	-1209
▁had	-1210
▁ter	-1211
▁två	-1212
änderna	-1213
▁possible	-1214
vs	-1215
▁real	-1216
▁forts	-1217
rodu	-1218
▁compet	-1219
▁framtid	-1220
▁last	-1221
▁demokrat	-1222
varande	-1223
▁repres	-1224
▁vissa	-1225
▁nöd	-1226
dom	-1227
ordbru	-1228
▁serv	-1229
▁directive	-1230
▁oli	-1231
row	-1232
▁bal	-1233
▁through	-1234
eur	-1235
▁sedan	-1236
▁sta	-1237
pr	-1238
▁im	-1239
ign	-1240
▁betänkandet	-1241
▁ref	-1242
erest	-1243
▁curr	-1244
gå	-1245
▁much	-1246
▁state	-1247
▁såd	-1248
▁deras	-1249
▁certain	-1250
ory	-1251
els	-1252
anska	-1253
sled	-1254
▁politiska	-1255
▁säkerhet	-1256
▁implement	-1257
▁may	-1258
▁mänsk	-1259
▁des	-1260
▁said	-1261
▁vote	-1262
▁represent	-1263
▁punkt	-1264
vention	-1265
isl	-1266
▁koll	-1267
▁matter	-1268
▁within	-1269
▁inter	-1270
▁reform	-1271
farande	-1272
▁tyd	-1273
▁direktiv	-1274
verk	-1275
▁common	-1276
▁gemensamma	-1277
▁numnum	-1278
▁institution	-1279
▁inf	-1280
▁interest	-1281
mär	-1282
▁ir	-1283
män	-1284
ready	-1285
▁already	-1286
▁framför	-1287
▁fort	-1288
▁specif	-1289
▁olika	-1290
▁ger	-1291
▁nödvänd	-1292
rar	-1293
▁still	-1294
per	-1295
▁cooperation	-1296
▁both	-1297
▁lo	-1298
▁mar	-1299
▁too	-1300
stitution	-1301
▁your	-1302
▁bor	-1303
▁ach	-1304
▁legisl	-1305
▁rapporteur	-1306
▁bid	-1307
▁achie	-1308
▁fast	-1309
▁call	-1310
▁gent	-1311
▁rat	-1312
empel	-1313
ussion	-1314
▁mrs	-1315
▁turk	-1316
▁energy	-1317
▁sak	-1318
▁stand	-1319
ina	-1320
▁läg	-1321
▁respect	-1322
ful	-1323
ug	-1324
▁människor	-1325
eller	-1326
▁gemenskap	-1327
▁nä	-1328
igheterna	-1329
▁finansi	-1330
▁rikt	-1331
▁bro	-1332
ves	-1333
▁sign	-1334
▁gång	-1335
alth	-1336
▁why	-1337
▁inneb	-1338
▁viktiga	-1339
▁hela	-1340
amhet	-1341
kom	-1342
åller	-1343
▁behöver	-1344
▁natur	-1345
ork	-1346
▁sid	-1347
▁hög	-1348
ange	-1349
riv	-1350
pekt	-1351
▁väg	-1352
▁differ	-1353
▁sect	-1354
▁ask	-1355
▁law	-1356
▁own	-1357
▁hope	-1358
▁conf	-1359
else	-1360
▁allmän	-1361
als	-1362
▁id	-1363
ba	-1364
ivå	-1365
ral	-1366
▁enligt	-1367
ute	-1368
ason	-1369
▁hopp	-1370
▁tar	-1371
▁ensure	-1372
▁global	-1373
▁car	-1374
▁arbete	-1375
erat	-1376
uring	-1377
▁sch	-1378
bon	-1379
urity	-1380
punkt	-1381
öter	-1382
▁fur	-1383
▁klar	-1384
▁mänskliga	-1385
▁auth	-1386
ktor	-1387
▁put	-1388
▁impro	-1389
▁europ	-1390
▁mina	-1391
ades	-1392
▁samt	-1393
klar	-1394
▁utskottet	-1395
sikt	-1396
▁fortsätt	-1397
ays	-1398
▁inn	-1399
▁ly	-1400
kn	-1401
▁area	-1402
▁course	-1403
▁prom	-1404
▁second	-1405
▁rätts	-1406
▁further	-1407
▁effektiv	-1408
omen	-1409
▁innebär	-1410
bour	-1411
▁lagstift	-1412
rimin	-1413
▁reason	-1414
▁action	-1415
▁gl	-1416
oti	-1417
▁lis	-1418
▁taken	-1419
▁then	-1420
▁kvin	-1421
▁author	-1422
ök	-1423
▁his	-1424
cing	-1425
cep	-1426
cker	-1427
handling	-1428
lim	-1429
ouse	-1430
▁procent	-1431
▁dock	-1432
▁protection	-1433
▁förbätt	-1434
ici	-1435
▁vårt	-1436
alf	-1437
▁case	-1438
▁health	-1439
▁röst	-1440
▁redu	-1441
▁medel	-1442
▁mak	-1443
ssel	-1444
▁security	-1445
▁able	-1446
▁ytter	-1447
▁terror	-1448
ob	-1449
▁tack	-1450
▁kolle	-1451
amöter	-1452
▁verkligen	-1453
▁includ	-1454
▁gar	-1455
▁kons	-1456
▁inde	-1457
▁rul	-1458
▁kvinn	-1459
▁without	-1460
▁saf	-1461
▁place	-1462
ential	-1463
sb	-1464
▁grupp	-1465
▁invol	-1466
▁legal	-1467
▁avtal	-1468
den	-1469
▁necess	-1470
▁fri	-1471
ail	-1472
▁instr	-1473
anter	-1474
▁mad	-1475
▁instrument	-1476
eriod	-1477
▁syn	-1478
aste	-1479
▁tillämp	-1480
röst	-1481
gru	-1482
ount	-1483
▁tror	-1484
▁proced	-1485
▁konkurr	-1486
gif	-1487
hip	-1488
orts	-1489
▁help	-1490
▁bl	-1491
▁stora	-1492
ep	-1493
▁treaty	-1494
▁main	-1495
air	-1496
ied	-1497
fråg	-1498
▁folk	-1499
ners	-1500
vä	-1501
▁bra	-1502
▁consum	-1503
▁ca	-1504
ether	-1505
▁number	-1506
fäll	-1507
▁fe	-1508
cc	-1509
ung	-1510
▁allow	-1511
▁hade	-1512
ingar	-1513
alog	-1514
▁lad	-1515
▁means	-1516
▁fortfarande	-1517
ample	-1518
chn	-1519
ember	-1520
▁given	-1521
▁medlemsstater	-1522
▁lång	-1523
▁hoppas	-1524
▁before	-1525
▁hu	-1526
gress	-1527
▁ram	-1528
▁employ	-1529
älv	-1530
mark	-1531
häll	-1532
▁wel	-1533
▁house	-1534
▁coll	-1535
▁gentle	-1536
ines	-1537
spolitik	-1538
räck	-1539
aren	-1540
ty	-1541
▁since	-1542
des	-1543
▁gå	-1544
sledamot	-1545
▁government	-1546
▁amendments	-1547
ital	-1548
▁foll	-1549
▁after	-1550
▁kontro	-1551
▁gentlemen	-1552
▁problems	-1553
▁rules	-1554
▁fre	-1555
itions	-1556
come	-1557
▁follow	-1558
▁ladies	-1559
ension	-1560
▁blir	-1561
isering	-1562
▁initiativ	-1563
ood	-1564
▁svar	-1565
▁dam	-1566
full	-1567
▁går	-1568
▁fav	-1569
vers	-1570
▁sådan	-1571
pportun	-1572
▁negoti	-1573
ler	-1574
▁opportun	-1575
▁civ	-1576
▁syft	-1577
▁trade	-1578
io	-1579
old	-1580
▁let	-1581
▁particularly	-1582
▁fle	-1583
ål	-1584
elser	-1585
▁democrat	-1586
▁aw	-1587
ligare	-1588
ration	-1589
ekt	-1590
▁mind	-1591
▁position	-1592
▁civil	-1593
tern	-1594
▁behand	-1595
▁madam	-1596
▁samma	-1597
utom	-1598
▁underst	-1599
▁sc	-1600
ately	-1601
▁dialog	-1602
pend	-1603
gifter	-1604
▁fly	-1605
ligtvis	-1606
▁es	-1607
▁konkurrens	-1608
▁issues	-1609
▁gre	-1610
own	-1611
igare	-1612
bart	-1613
▁necessary	-1614
andes	-1615
stabl	-1616
ystem	-1617
▁resultat	-1618
stablish	-1619
▁fish	-1620
▁partners	-1621
ents	-1622
▁long	-1623
▁seri	-1624
▁nationella	-1625
heten	-1626
▁give	-1627
▁varit	-1628
ins	-1629
▁deal	-1630
äk	-1631
▁fisk	-1632
▁united	-1633
ny	-1634
▁programme	-1635
self	-1636
yr	-1637
▁general	-1638
▁rådets	-1639
▁öka	-1640
läggande	-1641
▁abs	-1642
▁opin	-1643
änt	-1644
ständ	-1645
▁sociala	-1646
ann	-1647
▁lös	-1648
▁areas	-1649
▁techn	-1650
▁grundläggande	-1651
ater	-1652
▁defin	-1653
▁lead	-1654
▁skydd	-1655
ives	-1656
▁mill	-1657
▁specific	-1658
▁aid	-1659
▁establish	-1660
reg	-1661
▁vilka	-1662
ellt	-1663
▁solid	-1664
▁unionens	-1665
▁wish	-1666
▁arbets	-1667
ordbruk	-1668
▁rör	-1669
▁står	-1670
▁internationella	-1671
▁samtid	-1672
▁framew	-1673
▁cris	-1674
arge	-1675
▁decision	-1676
▁instit	-1677
draget	-1678
andeskap	-1679
▁product	-1680
▁fore	-1681
▁whether	-1682
itor	-1683
atta	-1684
ktur	-1685
▁samtidigt	-1686
ious	-1687
ey	-1688
bild	-1689
▁bety	-1690
▁bätt	-1691
▁cl	-1692
▁sector	-1693
▁bättre	-1694
▁ben	-1695
▁minister	-1696
▁framework	-1697
▁ordförandeskap	-1698
▁änn	-1699
▁ännu	-1700
ära	-1701
lic	-1702
▁increas	-1703
▁handlar	-1704
▁favour	-1705
▁tills	-1706
▁simp	-1707
▁presidency	-1708
▁services	-1709
sibility	-1710
▁progress	-1711
▁central	-1712
▁refer	-1713
▁tre	-1714
ound	-1715
ird	-1716
▁kommissionär	-1717
▁konsument	-1718
rad	-1719
▁handel	-1720
▁difficult	-1721
▁pow	-1722
▁överens	-1723
▁women	-1724
▁försö	-1725
▁contro	-1726
rikt	-1727
arch	-1728
▁set	-1729
▁omröst	-1730
unt	-1731
ata	-1732
▁roll	-1733
▁eur	-1734
▁suc	-1735
▁behov	-1736
▁samarbete	-1737
▁förslaget	-1738
▁provid	-1739
▁respekt	-1740
▁agr	-1741
▁stö	-1742
▁regulation	-1743
▁antal	-1744
▁different	-1745
▁behalf	-1746
politik	-1747
▁tred	-1748
▁kr	-1749
▁agricult	-1750
amil	-1751
▁role	-1752
▁prec	-1753
▁basis	-1754
▁contrib	-1755
▁naturligtvis	-1756
▁priv	-1757
ources	-1758
▁omfatt	-1759
ences	-1760
ame	-1761
▁try	-1762
▁solidar	-1763
▁serious	-1764
▁proposals	-1765
▁meet	-1766
▁uppn	-1767
▁cond	-1768
ward	-1769
skap	-1770
spro	-1771
▁pass	-1772
vet	-1773
råde	-1774
▁amendment	-1775
▁promot	-1776
▁terms	-1777
▁crisis	-1778
▁uppman	-1779
▁elect	-1780
▁borde	-1781
▁större	-1782
uality	-1783
▁häl	-1784
▁ledamöter	-1785
tag	-1786
▁bus	-1787
▁områden	-1788
ually	-1789
bly	-1790
▁pract	-1791
▁offent	-1792
▁grow	-1793
åde	-1794
▁rö	-1795
▁cor	-1796
nader	-1797
▁soci	-1798
minist	-1799
▁både	-1800
▁effective	-1801
▁mitt	-1802
▁gemensam	-1803
edom	-1804
▁skapa	-1805
▁third	-1806
▁aim	-1807
▁fundament	-1808
lev	-1809
enhet	-1810
▁uttry	-1811
▁agree	-1812
▁better	-1813
▁annat	-1814
kor	-1815
▁speak	-1816
▁look	-1817
▁liber	-1818
▁rese	-1819
▁eng	-1820
▁consider	-1821
opp	-1822
▁stånd	-1823
▁dessutom	-1824
▁cre	-1825
▁ide	-1826
▁arbetst	-1827
oint	-1828
▁diskut	-1829
▁tekn	-1830
▁kvinnor	-1831
istan	-1832
▁opinion	-1833
▁marknaden	-1834
ening	-1835
wards	-1836
▁crit	-1837
▁done	-1838
▁legislation	-1839
ph	-1840
▁change	-1841
sättning	-1842
▁pat	-1843
▁come	-1844
▁adopted	-1845
▁strategy	-1846
oner	-1847
eck	-1848
rådet	-1849
▁tacka	-1850
▁famil	-1851
iet	-1852
skning	-1853
tre	-1854
ium	-1855
mö	-1856
pro	-1857
▁situationen	-1858
▁organisation	-1859
▁needs	-1860
▁ytterligare	-1861
▁viktig	-1862
iteten	-1863
▁approach	-1864
▁ill	-1865
▁hist	-1866
ske	-1867
▁komma	-1868
▁fatt	-1869
kv	-1870
▁find	-1871
▁word	-1872
▁bed	-1873
▁institutions	-1874
rid	-1875
▁tru	-1876
väg	-1877
▁föredraganden	-1878
ivid	-1879
▁beg	-1880
▁avslut	-1881
▁her	-1882
▁harm	-1883
▁allvar	-1884
▁regional	-1885
▁research	-1886
▁ned	-1887
▁back	-1888
▁tas	-1889
▁accept	-1890
pri	-1891
▁uppnå	-1892
▁låt	-1893
▁tank	-1894
arant	-1895
▁fundamental	-1896
▁few	-1897
kan	-1898
ändring	-1899
ates	-1900
▁trots	-1901
▁bank	-1902
iva	-1903
uss	-1904
▁svår	-1905
▁sum	-1906
▁start	-1907
▁garanter	-1908
▁mynd	-1909
▁förhandling	-1910
▁continue	-1911
ellertid	-1912
▁emellertid	-1913
▁period	-1914
▁stöder	-1915
▁lu	-1916
▁freedom	-1917
round	-1918
▁mention	-1919
ktion	-1920
▁bu	-1921
fri	-1922
ined	-1923
▁ök	-1924
▁sna	-1925
▁whole	-1926
ren	-1927
osed	-1928
▁sett	-1929
ace	-1930
▁kontroll	-1931
ordning	-1932
▁välkom	-1933
atser	-1934
▁artik	-1935
racy	-1936
råk	-1937
▁fun	-1938
vious	-1939
älva	-1940
gående	-1941
press	-1942
ib	-1943
▁snabb	-1944
other	-1945
▁ingen	-1946
▁tidigare	-1947
stånd	-1948
▁föresl	-1949
▁event	-1950
▁voted	-1951
selves	-1952
dem	-1953
▁war	-1954
▁working	-1955
▁senaste	-1956
▁utgör	-1957
▁improve	-1958
ön	-1959
▁bland	-1960
▁tag	-1961
▁barn	-1962
▁three	-1963
▁fastställ	-1964
▁forward	-1965
▁säg	-1966
ärn	-1967
▁going	-1968
▁another	-1969
▁during	-1970
▁utvid	-1971
▁guarant	-1972
▁welcome	-1973
▁concerned	-1974
▁child	-1975
▁control	-1976
smed	-1977
▁el	-1978
▁safety	-1979
▁debatten	-1980
urs	-1981
räd	-1982
▁ess	-1983
▁employment	-1984
▁samhäll	-1985
▁hon	-1986
ible	-1987
▁opp	-1988
▁administ	-1989
▁amb	-1990
▁sl	-1991
▁small	-1992
elt	-1993
▁bring	-1994
mar	-1995
▁ed	-1996
▁bestämm	-1997
▁cost	-1998
▁kris	-1999
▁step	-2000
▁towards	-2001
▁rum	-2002
ists	-2003
▁benef	-2004
ras	-2005
ising	-2006
cepta	-2007
ething	-2008
rikes	-2009
lusion	-2010
▁herrar	-2011
▁byg	-2012
▁medborgare	-2013
▁something	-2014
erad	-2015
▁compan	-2016
▁rema	-2017
▁industry	-2018
▁current	-2019
▁krit	-2020
▁rättigheterna	-2021
▁kanske	-2022
▁relations	-2023
▁account	-2024
▁tillfäll	-2025
▁access	-2026
ically	-2027
stan	-2028
▁godk	-2029
▁large	-2030
ength	-2031
cially	-2032
▁världen	-2033
leg	-2034
▁små	-2035
▁akt	-2036
▁cult	-2037
▁damer	-2038
▁nödvändigt	-2039
▁milit	-2040
iness	-2041
▁introdu	-2042
▁syssel	-2043
▁nytt	-2044
▁including	-2045
▁fortsätta	-2046
las	-2047
▁success	-2048
▁commissions	-2049
mit	-2050
▁individ	-2051
up	-2052
▁stabil	-2053
ining	-2054
▁pay	-2055
samhet	-2056
▁håller	-2057
fy	-2058
▁achieve	-2059
▁conditions	-2060
sland	-2061
▁terrorism	-2062
ordningen	-2063
upp	-2064
vud	-2065
▁rad	-2066
▁principle	-2067
ligheten	-2068
enta	-2069
ints	-2070
▁amer	-2071
▁hör	-2072
▁resources	-2073
▁manag	-2074
▁press	-2075
änster	-2076
▁absol	-2077
let	-2078
änner	-2079
▁clearly	-2080
ways	-2081
▁artikel	-2082
sak	-2083
ective	-2084
▁innov	-2085
▁parlamentets	-2086
▁reach	-2087
▁fred	-2088
sid	-2089
▁affair	-2090
▁free	-2091
fall	-2092
▁endast	-2093
▁finally	-2094
▁food	-2095
▁fören	-2096
rift	-2097
▁accord	-2098
ross	-2099
▁dist	-2100
▁utbild	-2101
▁bil	-2102
ator	-2103
▁procedure	-2104
▁resol	-2105
by	-2106
▁port	-2107
▁while	-2108
▁struct	-2109
▁ing	-2110
▁lagstiftning	-2111
▁toget	-2112
▁did	-2113
▁together	-2114
ationer	-2115
▁lig	-2116
▁importance	-2117
▁nästa	-2118
▁down	-2119
▁move	-2120
▁oro	-2121
emp	-2122
▁område	-2123
▁förklar	-2124
▁authorities	-2125
eringar	-2126
ös	-2127
gar	-2128
delse	-2129
▁ital	-2130
▁proposed	-2131
▁flera	-2132
▁vilken	-2133
vide	-2134
▁hans	-2135
▁provide	-2136
▁läng	-2137
ht	-2138
▁increase	-2139
▁funds	-2140
▁tydligt	-2141
▁opportunity	-2142
▁discuss	-2143
▁bak	-2144
▁rus	-2145
▁used	-2146
▁europeisk	-2147
▁policies	-2148
▁once	-2149
▁avse	-2150
▁espe	-2151
▁ru	-2152
▁yet	-2153
▁diskussion	-2154
▁especially	-2155
▁million	-2156
▁internal	-2157
▁environmental	-2158
▁really	-2159
▁ståndpunkt	-2160
▁read	-2161
▁less	-2162
eringen	-2163
▁nivå	-2164
▁imm	-2165
hör	-2166
▁viol	-2167
nat	-2168
▁framste	-2169
▁play	-2170
▁peace	-2171
▁isra	-2172
▁commit	-2173
▁adv	-2174
▁affairs	-2175
ogn	-2176
▁kult	-2177
▁negotiations	-2178
ption	-2179
▁häns	-2180
ified	-2181
kta	-2182
oende	-2183
ons	-2184
▁parliaments	-2185
▁intress	-2186
▁sag	-2187
▁san	-2188
▁harmon	-2189
▁inre	-2190
▁förv	-2191
▁greater	-2192
uc	-2193
tet	-2194
▁business	-2195
äd	-2196
▁rather	-2197
▁products	-2198
▁rom	-2199
▁recogn	-2200
ingen	-2201
uite	-2202
▁emot	-2203
▁shall	-2204
lla	-2205
märks	-2206
ases	-2207
uire	-2208
▁understand	-2209
▁erk	-2210
▁activ	-2211
▁faktiskt	-2212
▁hänsyn	-2213
▁beton	-2214
▁suff	-2215
▁organis	-2216
▁responsibility	-2217
▁ang	-2218
▁huvud	-2219
ority	-2220
▁open	-2221
▁kolleger	-2222
ammans	-2223
▁dom	-2224
▁prevent	-2225
▁miss	-2226
frågor	-2227
ession	-2228
▁regions	-2229
▁framtiden	-2230
for	-2231
▁russi	-2232
▁mor	-2233
▁uppmärks	-2234
ningarna	-2235
rel	-2236
▁become	-2237
gräns	-2238
▁ret	-2239
▁strength	-2240
▁democracy	-2241
▁addition	-2242
▁priorit	-2243
tra	-2244
be	-2245
▁mindre	-2246
▁least	-2247
ordin	-2248
▁supp	-2249
▁unf	-2250
▁kamm	-2251
▁itself	-2252
ulation	-2253
arnas	-2254
älp	-2255
▁bel	-2256
▁ph	-2257
▁nå	-2258
▁prof	-2259
▁brott	-2260
kraft	-2261
▁industri	-2262
▁kraft	-2263
▁tillsammans	-2264
fö	-2265
▁alltid	-2266
▁pris	-2267
struct	-2268
ield	-2269
▁met	-2270
ktorn	-2271
part	-2272
▁förl	-2273
▁livsmed	-2274
▁visar	-2275
▁show	-2276
▁kost	-2277
▁nämligen	-2278
▁air	-2279
▁comb	-2280
ness	-2281
▁integration	-2282
▁democratic	-2283
▁vidare	-2284
▁sing	-2285
over	-2286
vak	-2287
▁indeed	-2288
naden	-2289
▁förh	-2290
▁growth	-2291
ide	-2292
▁utvidg	-2293
▁området	-2294
▁trad	-2295
▁nation	-2296
▁förbättra	-2297
ects	-2298
▁agend	-2299
▁creat	-2300
▁power	-2301
ui	-2302
▁förenta	-2303
▁handling	-2304
▁gräns	-2305
▁complet	-2306
▁et	-2307
edel	-2308
bara	-2309
▁though	-2310
▁ple	-2311
▁kort	-2312
▁lif	-2313
▁tillräck	-2314
lude	-2315
▁hos	-2316
▁enc	-2317
nytt	-2318
vision	-2319
▁talk	-2320
▁never	-2321
▁making	-2322
▁having	-2323
▁attention	-2324
▁sw	-2325
▁tillgång	-2326
ants	-2327
▁ident	-2328
▁taking	-2329
▁lim	-2330
▁rättsliga	-2331
▁educ	-2332
▁lägga	-2333
▁based	-2334
▁lika	-2335
▁öpp	-2336
▁inrätt	-2337
▁konse	-2338
▁histor	-2339
▁positive	-2340
▁framsteg	-2341
▁essential	-2342
▁always	-2343
▁demand	-2344
▁kval	-2345
▁implementation	-2346
tera	-2347
▁ap	-2348
▁appropri	-2349
▁stud	-2350
▁bekämp	-2351
▁förm	-2352
ligheter	-2353
▁israel	-2354
▁society	-2355
uro	-2356
rån	-2357
▁enda	-2358
▁påpe	-2359
▁economy	-2360
▁things	-2361
▁sidan	-2362
▁artic	-2363
▁each	-2364
▁mult	-2365
▁nuvarande	-2366
▁interests	-2367
enskap	-2368
▁längre	-2369
oney	-2370
byg	-2371
▁ligger	-2372
▁colle	-2373
kten	-2374
▁ear	-2375
orth	-2376
▁länderna	-2377
▁säger	-2378
▁prepar	-2379
band	-2380
▁anslut	-2381
▁bi	-2382
▁minska	-2383
▁lämp	-2384
▁bo	-2385
ages	-2386
▁data	-2387
itets	-2388
▁discussion	-2389
lin	-2390
▁personer	-2391
▁alth	-2392
▁signific	-2393
▁tillvä	-2394
▁intres	-2395
spolitiken	-2396
▁närvarande	-2397
▁get	-2398
▁försvar	-2399
▁fight	-2400
▁efforts	-2401
▁although	-2402
spr	-2403
▁pal	-2404
rip	-2405
▁samm	-2406
aps	-2407
▁direktivet	-2408
▁stort	-2409
▁various	-2410
ected	-2411
nsk	-2412
ath	-2413
▁single	-2414
▁oblig	-2415
▁anal	-2416
use	-2417
▁annan	-2418
yl	-2419
▁special	-2420
▁money	-2421
atten	-2422
▁liberal	-2423
ased	-2424
▁verksamhet	-2425
nen	-2426
peri	-2427
▁inled	-2428
▁pot	-2429
▁workers	-2430
ile	-2431
▁dan	-2432
numnumnum	-2433
▁susta	-2434
▁fail	-2435
▁address	-2436
▁agenda	-2437
▁skäl	-2438
▁pop	-2439
▁röstade	-2440
▁förut	-2441
ac	-2442
▁rece	-2443
▁transpar	-2444
▁chang	-2445
▁betydelse	-2446
▁van	-2447
▁total	-2448
▁altern	-2449
▁rest	-2450
▁fler	-2451
▁among	-2452
▁ga	-2453
hålla	-2454
naderna	-2455
▁ofta	-2456
▁pa	-2457
▁lyck	-2458
▁following	-2459
över	-2460
▁utnytt	-2461
iken	-2462
treme	-2463
▁mod	-2464
▁talar	-2465
ify	-2466
▁ramen	-2467
indel	-2468
▁ekonomisk	-2469
ication	-2470
▁aspect	-2471
▁points	-2472
▁bidrag	-2473
iss	-2474
▁slutligen	-2475
▁strong	-2476
▁competition	-2477
▁skrift	-2478
▁char	-2479
▁allts	-2480
▁stär	-2481
▁lissa	-2482
▁begär	-2483
▁ren	-2484
▁proper	-2485
▁enk	-2486
▁words	-2487
ics	-2488
▁lissabon	-2489
▁lisbon	-2490
▁court	-2491
▁colleag	-2492
▁occ	-2493
▁applic	-2494
▁kamp	-2495
lly	-2496
▁avgör	-2497
▁clo	-2498
organ	-2499
▁chall	-2500
ned	-2501
▁synner	-2502
▁tanke	-2503
▁äg	-2504
ärt	-2505
▁foreign	-2506
▁grat	-2507
▁genomföra	-2508
▁month	-2509
▁fem	-2510
▁sky	-2511
räff	-2512
stå	-2513
änst	-2514
▁välkomnar	-2515
▁palest	-2516
▁conse	-2517
▁hän	-2518
▁bä	-2519
uella	-2520
▁companies	-2521
▁agreements	-2522
andid	-2523
limat	-2524
▁sådana	-2525
visions	-2526
light	-2527
▁unders	-2528
▁concerns	-2529
▁utvecklingen	-2530
▁alltså	-2531
▁resul	-2532
▁field	-2533
▁delar	-2534
utes	-2535
grat	-2536
kvens	-2537
▁emph	-2538
ferens	-2539
▁energi	-2540
▁sagt	-2541
▁close	-2542
▁involved	-2543
▁happen	-2544
▁staterna	-2545
ab	-2546
▁rem	-2547
▁önsk	-2548
äker	-2549
▁bort	-2550
ustice	-2551
▁loc	-2552
vr	-2553
nivå	-2554
▁congrat	-2555
▁utarbet	-2556
ari	-2557
ssystem	-2558
▁technolog	-2559
▁steg	-2560
▁congratul	-2561
thing	-2562
▁enlar	-2563
rom	-2564
ek	-2565
▁krävs	-2566
▁individual	-2567
spl	-2568
▁oper	-2569
▁groups	-2570
agen	-2571
▁kräver	-2572
▁mest	-2573
▁uppfy	-2574
▁skatt	-2575
▁kl	-2576
▁kund	-2577
▁list	-2578
▁tycker	-2579
▁framgång	-2580
▁star	-2581
ont	-2582
ectives	-2583
▁seem	-2584
▁programmes	-2585
▁fullständ	-2586
▁clim	-2587
▁af	-2588
▁samband	-2589
▁subsid	-2590
▁unions	-2591
▁standards	-2592
▁article	-2593
itim	-2594
▁increasing	-2595
▁sur	-2596
ock	-2597
▁förstå	-2598
▁force	-2599
▁certainly	-2600
com	-2601
▁mean	-2602
▁statement	-2603
håller	-2604
▁minim	-2605
atter	-2606
▁utbildning	-2607
▁fått	-2608
bland	-2609
▁rys	-2610
▁enlarg	-2611
▁medlem	-2612
▁encour	-2613
▁assist	-2614
▁använda	-2615
▁draft	-2616
▁omröstningen	-2617
▁engag	-2618
eep	-2619
▁forskning	-2620
▁fully	-2621
raph	-2622
▁medborgarna	-2623
▁arg	-2624
▁läm	-2625
gest	-2626
▁fisher	-2627
▁struktur	-2628
fördraget	-2629
rig	-2630
ban	-2631
▁appe	-2632
▁villkor	-2633
ivt	-2634
hing	-2635
▁constitution	-2636
▁regl	-2637
▁upprätt	-2638
▁climate	-2639
▁deleg	-2640
▁demon	-2641
▁often	-2642
▁recent	-2643
stol	-2644
▁portug	-2645
▁befolk	-2646
▁klimat	-2647
▁solution	-2648
▁december	-2649
icient	-2650
▁övert	-2651
ification	-2652
▁antag	-2653
▁education	-2654
▁agricultural	-2655
▁care	-2656
▁garantera	-2657
ended	-2658
▁const	-2659
▁concer	-2660
▁norm	-2661
▁emphas	-2662
▁ryssland	-2663
▁life	-2664
▁landet	-2665
▁äm	-2666
▁uttal	-2667
▁farm	-2668
▁conclusion	-2669
▁coordin	-2670
▁berör	-2671
▁visa	-2672
astro	-2673
▁kall	-2674
▁short	-2675
onger	-2676
▁dialogue	-2677
▁pension	-2678
▁rösta	-2679
▁program	-2680
▁avail	-2681
ica	-2682
▁children	-2683
▁anled	-2684
he	-2685
▁kor	-2686
bud	-2687
▁bur	-2688
▁du	-2689
▁problemet	-2690
oritet	-2691
▁significant	-2692
ove	-2693
mål	-2694
til	-2695
▁förbindel	-2696
▁varför	-2697
▁sever	-2698
▁writ	-2699
▁övr	-2700
▁name	-2701
▁livsmedel	-2702
▁feel	-2703
uestions	-2704
ills	-2705
▁answ	-2706
▁peng	-2707
▁competit	-2708
▁simply	-2709
▁decisions	-2710
▁synnerhet	-2711
ither	-2712
▁initiative	-2713
ceed	-2714
▁production	-2715
äder	-2716
▁offer	-2717
▁regeringen	-2718
prom	-2719
▁utrikes	-2720
▁fört	-2721
▁ändå	-2722
▁förhåll	-2723
uk	-2724
apital	-2725
▁kos	-2726
oub	-2727
▁internation	-2728
kl	-2729
tremely	-2730
visa	-2731
thers	-2732
▁ira	-2733
▁nor	-2734
icial	-2735
länd	-2736
▁aware	-2737
to	-2738
igen	-2739
▁död	-2740
▁medvet	-2741
▁politisk	-2742
▁rule	-2743
▁developing	-2744
▁party	-2745
▁uppg	-2746
fär	-2747
▁sure	-2748
▁tala	-2749
▁klart	-2750
▁ung	-2751
ino	-2752
ees	-2753
ativa	-2754
serv	-2755
handel	-2756
mer	-2757
elserna	-2758
▁strategi	-2759
ried	-2760
▁största	-2761
▁comprom	-2762
▁impact	-2763
▁ban	-2764
ference	-2765
▁recomm	-2766
▁stället	-2767
▁concerning	-2768
▁enorm	-2769
raff	-2770
▁conte	-2771
▁moder	-2772
▁consumers	-2773
▁utman	-2774
▁found	-2775
▁begräns	-2776
nes	-2777
▁others	-2778
soci	-2779
ora	-2780
▁invand	-2781
▁particip	-2782
ech	-2783
▁enter	-2784
▁assess	-2785
▁asyl	-2786
▁labour	-2787
▁konsekvens	-2788
▁bidra	-2789
▁krav	-2790
sen	-2791
cell	-2792
ortun	-2793
▁cir	-2794
▁offentliga	-2795
▁uppgifter	-2796
▁hot	-2797
▁flyg	-2798
▁kind	-2799
▁perh	-2800
▁doc	-2801
åda	-2802
▁east	-2803
▁perhaps	-2804
orna	-2805
▁humanit	-2806
valt	-2807
▁actually	-2808
▁create	-2809
▁kunde	-2810
▁händ	-2811
urser	-2812
▁document	-2813
▁faktum	-2814
▁uni	-2815
▁currently	-2816
▁ago	-2817
plan	-2818
▁sammanh	-2819
▁unfortun	-2820
▁sade	-2821
▁complete	-2822
pac	-2823
▁gratul	-2824
▁kö	-2825
▁lösning	-2826
▁dim	-2827
▁egna	-2828
▁associ	-2829
▁guarantee	-2830
▁intresse	-2831
▁una	-2832
▁might	-2833
▁prakt	-2834
förande	-2835
▁mom	-2836
▁öppen	-2837
bled	-2838
ily	-2839
most	-2840
▁komprom	-2841
▁mots	-2842
kon	-2843
▁non	-2844
älpa	-2845
obs	-2846
cession	-2847
baka	-2848
▁allmänna	-2849
▁tillbaka	-2850
▁cy	-2851
råden	-2852
gramm	-2853
▁lack	-2854
värd	-2855
alt	-2856
▁behandling	-2857
▁gener	-2858
▁immig	-2859
åta	-2860
▁mentioned	-2861
indra	-2862
▁arbetstag	-2863
ensive	-2864
▁foc	-2865
▁apply	-2866
ydda	-2867
▁våld	-2868
▁sammant	-2869
stad	-2870
▁behovet	-2871
ösa	-2872
▁båda	-2873
▁egen	-2874
▁begin	-2875
▁åtgärd	-2876
nade	-2877
bygg	-2878
skydd	-2879
▁enlargement	-2880
▁day	-2881
▁writing	-2882
▁heller	-2883
▁tänk	-2884
▁hem	-2885
▁available	-2886
used	-2887
▁liksom	-2888
ending	-2889
▁dr	-2890
▁drabb	-2891
▁consumer	-2892
▁skydda	-2893
fond	-2894
▁key	-2895
▁coh	-2896
▁results	-2897
▁åtag	-2898
eria	-2899
▁igen	-2900
pris	-2901
▁stad	-2902
▁bill	-2903
▁innan	-2904
▁konkret	-2905
▁infra	-2906
▁tom	-2907
▁management	-2908
▁kärn	-2909
▁administrat	-2910
eness	-2911
▁finansiella	-2912
▁pur	-2913
änna	-2914
▁convention	-2915
värr	-2916
▁stability	-2917
▁mand	-2918
fin	-2919
▁överenskomm	-2920
▁tyvärr	-2921
▁snabbt	-2922
åder	-2923
▁avgörande	-2924
▁appropriate	-2925
▁bästa	-2926
▁rekomm	-2927
▁ick	-2928
talet	-2929
▁systems	-2930
▁monitor	-2931
ätta	-2932
▁relig	-2933
▁meeting	-2934
rin	-2935
▁kosov	-2936
▁sn	-2937
ane	-2938
▁responsible	-2939
▁draw	-2940
▁ve	-2941
▁governments	-2942
eless	-2943
▁secondly	-2944
▁brist	-2945
▁palestin	-2946
▁känner	-2947
slä	-2948
▁cases	-2949
▁direkt	-2950
▁ukra	-2951
clear	-2952
iens	-2953
cies	-2954
strateg	-2955
▁post	-2956
inable	-2957
▁frihet	-2958
▁independ	-2959
kning	-2960
▁vin	-2961
▁solidarity	-2962
▁komp	-2963
▁typ	-2964
▁firstly	-2965
▁intressen	-2966
uta	-2967
▁orig	-2968
outh	-2969
▁oppos	-2970
▁russia	-2971
▁appli	-2972
▁dut	-2973
▁personal	-2974
▁långt	-2975
umed	-2976
▁kammaren	-2977
▁leda	-2978
ection	-2979
andena	-2980
▁lok	-2981
side	-2982
▁four	-2983
▁reports	-2984
▁relation	-2985
ec	-2986
▁innovation	-2987
▁him	-2988
▁themselves	-2989
▁needed	-2990
▁sysselsättning	-2991
▁relev	-2992
går	-2993
enheter	-2994
▁viktigaste	-2995
▁regler	-2996
▁doing	-2997
▁skriftlig	-2998
▁regarding	-2999
▁matters	-3000
oder	-3001
atastro	-3002
▁turkey	-3003
▁illeg	-3004
▁net	-3005
▁principles	-3006
▁german	-3007
äv	-3008
▁tiden	-3009
▁regim	-3010
▁recommend	-3011
fli	-3012
▁kultur	-3013
okoll	-3014
▁ham	-3015
arder	-3016
▁months	-3017
värder	-3018
rable	-3019
▁nog	-3020
▁uppfatt	-3021
orde	-3022
▁cru	-3023
ale	-3024
▁summit	-3025
ceptable	-3026
ämmer	-3027
▁anim	-3028
▁förra	-3029
▁according	-3030
▁åren	-3031
splan	-3032
▁blo	-3033
▁aktiv	-3034
▁förfar	-3035
▁origin	-3036
▁contain	-3037
sav	-3038
ibility	-3039
▁demokrati	-3040
lands	-3041
lect	-3042
▁förändring	-3043
bor	-3044
arian	-3045
▁thing	-3046
▁sammanhåll	-3047
yra	-3048
▁reasons	-3049
▁arbeta	-3050
met	-3051
ista	-3052
▁compromise	-3053
▁territor	-3054
▁final	-3055
▁uppen	-3056
▁build	-3057
▁costs	-3058
▁utmär	-3059
struktur	-3060
▁fair	-3061
▁effektivt	-3062
▁keep	-3063
iveness	-3064
▁morg	-3065
▁ledamot	-3066
▁turkiet	-3067
▁skyld	-3068
▁internet	-3069
▁enough	-3070
▁funding	-3071
less	-3072
▁youn	-3073
▁monet	-3074
▁above	-3075
▁tradition	-3076
▁fel	-3077
iar	-3078
▁parties	-3079
▁grad	-3080
▁slag	-3081
atives	-3082
▁bre	-3083
▁reser	-3084
▁kv	-3085
▁pack	-3086
▁service	-3087
▁past	-3088
ident	-3089
ningsvis	-3090
▁modern	-3091
▁unfortunately	-3092
atis	-3093
atory	-3094
▁sustainable	-3095
▁conference	-3096
▁investment	-3097
▁urspr	-3098
▁förordning	-3099
▁threat	-3100
oubt	-3101
▁nuclear	-3102
erable	-3103
anu	-3104
▁subst	-3105
▁due	-3106
cer	-3107
▁local	-3108
▁förvalt	-3109
▁peoples	-3110
▁maintain	-3111
▁priority	-3112
öv	-3113
▁cohes	-3114
▁activities	-3115
aged	-3116
urope	-3117
eslut	-3118
▁anstr	-3119
▁achieved	-3120
ises	-3121
ivit	-3122
▁moment	-3123
▁accep	-3124
▁demokratiska	-3125
rike	-3126
står	-3127
▁styr	-3128
▁syfte	-3129
ps	-3130
▁bru	-3131
▁hitt	-3132
▁regards	-3133
▁europas	-3134
ynd	-3135
▁utför	-3136
nande	-3137
▁nothing	-3138
▁ert	-3139
▁longer	-3140
ke	-3141
▁pengar	-3142
▁analys	-3143
▁bestämmelser	-3144
▁continu	-3145
view	-3146
▁afr	-3147
▁hit	-3148
ody	-3149
▁införa	-3150
▁stress	-3151
▁bekämpa	-3152
ars	-3153
gruppen	-3154
▁ursprung	-3155
▁cri	-3156
▁road	-3157
▁commitment	-3158
▁bry	-3159
▁wr	-3160
▁underl	-3161
▁nations	-3162
▁uppre	-3163
▁legislative	-3164
▁cla	-3165
▁topp	-3166
▁obvious	-3167
▁hållbar	-3168
▁low	-3169
isting	-3170
▁gemenskapens	-3171
▁promote	-3172
▁idea	-3173
▁true	-3174
ider	-3175
gets	-3176
▁enlighet	-3177
▁span	-3178
▁several	-3179
▁orsak	-3180
▁markets	-3181
▁hålla	-3182
▁broad	-3183
▁young	-3184
▁betyd	-3185
dam	-3186
▁sida	-3187
▁cred	-3188
▁förd	-3189
▁snar	-3190
▁precis	-3191
▁thus	-3192
grund	-3193
ittle	-3194
▁uppmanar	-3195
▁gran	-3196
▁link	-3197
▁congratulate	-3198
▁pen	-3199
▁green	-3200
▁potential	-3201
cessen	-3202
▁krisen	-3203
ided	-3204
▁provided	-3205
▁sug	-3206
▁little	-3207
skon	-3208
▁ambiti	-3209
▁tillräckligt	-3210
ateral	-3211
lyck	-3212
▁cohesion	-3213
▁vict	-3214
▁balans	-3215
sländerna	-3216
▁säkerhets	-3217
igheten	-3218
▁structural	-3219
▁line	-3220
▁gett	-3221
▁answer	-3222
▁transparency	-3223
▁glad	-3224
▁myndigheterna	-3225
▁produkter	-3226
▁suggest	-3227
▁dimension	-3228
▁konkurrenskraft	-3229
▁tillg	-3230
länderna	-3231
▁agriculture	-3232
▁konstitution	-3233
▁beklag	-3234
istiska	-3235
▁urg	-3236
cellent	-3237
▁skap	-3238
▁fisheries	-3239
▁head	-3240
fal	-3241
▁enskil	-3242
▁kosovo	-3243
▁framtida	-3244
▁ol	-3245
▁ena	-3246
▁eas	-3247
▁meddel	-3248
istånd	-3249
öka	-3250
▁benefit	-3251
▁gas	-3252
▁fallet	-3253
ternal	-3254
mötet	-3255
äkerhet	-3256
▁item	-3257
▁include	-3258
▁sci	-3259
▁saker	-3260
▁communication	-3261
▁föredragande	-3262
▁fördraget	-3263
▁driv	-3264
▁kommande	-3265
orrow	-3266
▁genomförandet	-3267
▁konfli	-3268
▁delegation	-3269
▁veck	-3270
▁anum	-3271
▁previous	-3272
br	-3273
▁argument	-3274
ckt	-3275
väl	-3276
▁främst	-3277
▁tagit	-3278
organisation	-3279
▁desp	-3280
ians	-3281
▁remain	-3282
raf	-3283
▁entire	-3284
ställa	-3285
gs	-3286
ient	-3287
▁wto	-3288
ims	-3289
▁south	-3290
▁ekonomi	-3291
▁share	-3292
föl	-3293
▁resurser	-3294
stances	-3295
▁tomorrow	-3296
▁tele	-3297
området	-3298
terna	-3299
▁medelst	-3300
▁antog	-3301
vil	-3302
dag	-3303
..	-3304
endet	-3305
kas	-3306
▁skill	-3307
▁föreslag	-3308
▁focus	-3309
▁därmed	-3310
▁makes	-3311
▁behövs	-3312
▁she	-3313
ioner	-3314
iation	-3315
▁nödvändiga	-3316
▁bul	-3317
ived	-3318
åtgär	-3319
▁aspects	-3320
▁meth	-3321
▁lit	-3322
pla	-3323
stone	-3324
bol	-3325
erial	-3326
politiken	-3327
▁seen	-3328
▁nyligen	-3329
utskott	-3330
▁försöka	-3331
▁slo	-3332
▁medelstora	-3333
▁opt	-3334
giv	-3335
▁netw	-3336
▁response	-3337
▁ton	-3338
▁agreed	-3339
teck	-3340
▁actions	-3341
▁kvar	-3342
▁sektor	-3343
▁inget	-3344
▁uppm	-3345
grammet	-3346
▁innehåller	-3347
▁anp	-3348
▁comes	-3349
▁detail	-3350
▁erb	-3351
▁circ	-3352
▁cho	-3353
▁lagt	-3354
empt	-3355
▁hen	-3356
▁övertyg	-3357
▁absolute	-3358
▁såsom	-3359
inoff	-3360
▁vidta	-3361
▁partnership	-3362
▁gra	-3363
▁året	-3364
▁sådant	-3365
▁accession	-3366
▁review	-3367
▁dok	-3368
fully	-3369
▁technical	-3370
▁blivit	-3371
▁until	-3372
▁budgetary	-3373
▁betal	-3374
▁lösa	-3375
▁voting	-3376
gg	-3377
▁kompl	-3378
▁skad	-3379
pos	-3380
beroende	-3381
▁dokument	-3382
▁method	-3383
▁sluts	-3384
isera	-3385
▁åsikt	-3386
▁times	-3387
▁ers	-3388
▁ansträng	-3389
▁besk	-3390
▁legitim	-3391
▁verkar	-3392
▁uppmunt	-3393
strict	-3394
ård	-3395
inoffice	-3396
atic	-3397
▁anumnumnum	-3398
▁cover	-3399
▁frank	-3400
▁förber	-3401
inder	-3402
▁förvänt	-3403
pres	-3404
▁population	-3405
▁alltför	-3406
▁kommun	-3407
verty	-3408
▁os	-3409
apen	-3410
▁poverty	-3411
▁kampen	-3412
▁undant	-3413
▁uppgift	-3414
chan	-3415
▁minst	-3416
▁regulations	-3417
employ	-3418
▁morgon	-3419
▁gruppen	-3420
go	-3421
ract	-3422
ub	-3423
▁usa	-3424
örer	-3425
▁stärka	-3426
▁beträff	-3427
▁values	-3428
▁fortsätter	-3429
kade	-3430
▁contribution	-3431
riminal	-3432
▁upon	-3433
▁mechan	-3434
▁inrikt	-3435
▁beakt	-3436
rum	-3437
▁partnerskap	-3438
▁särskilda	-3439
▁everyone	-3440
▁sent	-3441
▁colleagues	-3442
kes	-3443
kar	-3444
▁omfattande	-3445
▁finansiering	-3446
▁funger	-3447
▁violence	-3448
indust	-3449
▁komment	-3450
domar	-3451
▁brit	-3452
▁föreslår	-3453
ryck	-3454
ican	-3455
▁företräd	-3456
▁eumed	-3457
▁depend	-3458
▁assistance	-3459
▁regel	-3460
▁organisations	-3461
gram	-3462
▁shar	-3463
▁practice	-3464
▁län	-3465
▁pleased	-3466
▁påmin	-3467
▁strengthen	-3468
▁uppmärksamhet	-3469
▁syftar	-3470
bilities	-3471
▁rätta	-3472
uired	-3473
▁changes	-3474
▁emission	-3475
▁institutioner	-3476
sam	-3477
▁pak	-3478
hav	-3479
lade	-3480
igdom	-3481
▁systemet	-3482
▁provisions	-3483
mitt	-3484
▁nö	-3485
anced	-3486
institution	-3487
▁yr	-3488
▁restrict	-3489
▁enkelt	-3490
▁enbart	-3491
▁despite	-3492
▁länge	-3493
▁resolutions	-3494
▁sept	-3495
tar	-3496
▁ald	-3497
ron	-3498
äss	-3499
▁bord	-3500
▁status	-3501
rande	-3502
ledge	-3503
▁protokoll	-3504
▁leder	-3505
▁bekrä	-3506
ika	-3507
▁avtalet	-3508
▁återupp	-3509
▁september	-3510
▁fullständigt	-3511
▁pap	-3512
▁snart	-3513
▁visat	-3514
delar	-3515
▁elections	-3516
▁north	-3517
▁seek	-3518
ermin	-3519
▁gree	-3520
▁avs	-3521
▁criteria	-3522
▁belg	-3523
▁utanför	-3524
minister	-3525
▁consult	-3526
räde	-3527
▁illegal	-3528
▁facil	-3529
usive	-3530
▁bulgar	-3531
▁itu	-3532
lict	-3533
▁lang	-3534
▁kollega	-3535
▁avo	-3536
▁avseende	-3537
▁finnas	-3538
▁procedures	-3539
rect	-3540
mber	-3541
▁utveckla	-3542
▁hittills	-3543
▁grek	-3544
▁seems	-3545
▁precise	-3546
▁kompromiss	-3547
▁via	-3548
▁förhandlingarna	-3549
▁water	-3550
▁aldrig	-3551
ester	-3552
▁försöker	-3553
ends	-3554
bourg	-3555
ländska	-3556
▁fick	-3557
▁iran	-3558
▁grän	-3559
▁arbetsl	-3560
▁tänker	-3561
▁fattigdom	-3562
▁farmers	-3563
▁declar	-3564
demokrat	-3565
▁sim	-3566
▁soon	-3567
▁nove	-3568
▁traff	-3569
▁left	-3570
▁crucial	-3571
▁live	-3572
▁oberoende	-3573
oh	-3574
▁förbered	-3575
▁ot	-3576
▁along	-3577
▁kar	-3578
rott	-3579
▁former	-3580
kanism	-3581
medi	-3582
▁mass	-3583
▁november	-3584
▁everything	-3585
▁mär	-3586
▁hold	-3587
▁partner	-3588
▁barro	-3589
▁,	-3590
▁training	-3591
produ	-3592
▁tell	-3593
▁ske	-3594
▁fan	-3595
▁arbetet	-3596
▁increased	-3597
▁vol	-3598
grupp	-3599
▁dest	-3600
▁inga	-3601
▁krig	-3602
▁sens	-3603
▁opportunities	-3604
▁challeng	-3605
▁indic	-3606
▁fi	-3607
▁langu	-3608
▁strä	-3609
idence	-3610
ända	-3611
vara	-3612
▁conn	-3613
▁politiken	-3614
▁univers	-3615
▁produc	-3616
▁inste	-3617
▁absolut	-3618
▁cultural	-3619
▁lever	-3620
▁basic	-3621
sst	-3622
▁term	-3623
▁instead	-3624
▁svårt	-3625
▁creation	-3626
uences	-3627
ha	-3628
▁haft	-3629
▁relating	-3630
▁china	-3631
erande	-3632
▁insatser	-3633
▁ourselves	-3634
▁sista	-3635
▁gratulera	-3636
▁saying	-3637
förändring	-3638
istic	-3639
▁politiskt	-3640
▁fishing	-3641
▁resolutionen	-3642
▁konstat	-3643
▁lätt	-3644
uirements	-3645
▁carried	-3646
▁goda	-3647
sm	-3648
▁reduce	-3649
▁definition	-3650
reds	-3651
▁kina	-3652
▁repe	-3653
▁military	-3654
▁tabled	-3655
▁samarbetet	-3656
▁vare	-3657
▁arbetsmark	-3658
▁omröstning	-3659
▁ka	-3660
iting	-3661
gn	-3662
▁betona	-3663
▁test	-3664
▁utvärder	-3665
▁övervak	-3666
▁application	-3667
ym	-3668
ferensen	-3669
▁week	-3670
▁nord	-3671
▁upph	-3672
▁asked	-3673
▁danger	-3674
utt	-3675
▁aud	-3676
▁uttryck	-3677
▁förstär	-3678
▁arbetar	-3679
▁parliamentary	-3680
▁deltag	-3681
▁fell	-3682
▁instruments	-3683
ober	-3684
▁super	-3685
▁europes	-3686
göra	-3687
▁åtmin	-3688
▁åtminstone	-3689
▁viss	-3690
uick	-3691
▁monitoring	-3692
ourable	-3693
ännande	-3694
▁throughout	-3695
▁förtro	-3696
▁standard	-3697
▁budgeten	-3698
sin	-3699
▁kont	-3700
▁namely	-3701
▁punkter	-3702
▁held	-3703
▁vit	-3704
▁sker	-3705
▁balance	-3706
ctions	-3707
▁closed	-3708
▁active	-3709
bur	-3710
▁refor	-3711
▁internationell	-3712
▁anta	-3713
▁befog	-3714
ighbour	-3715
▁genu	-3716
▁minsk	-3717
▁vore	-3718
plo	-3719
▁erfar	-3720
▁clar	-3721
▁funkt	-3722
▁neighbour	-3723
▁ekonomiskt	-3724
▁sense	-3725
▁övers	-3726
▁föreslå	-3727
▁vetenskap	-3728
▁ground	-3729
▁carry	-3730
icien	-3731
▁mening	-3732
rist	-3733
▁either	-3734
▁flo	-3735
▁rekommend	-3736
rade	-3737
handa	-3738
▁ih	-3739
▁vatten	-3740
inner	-3741
▁års	-3742
fact	-3743
sord	-3744
regl	-3745
▁spa	-3746
▁cross	-3747
▁nam	-3748
▁discrimin	-3749
frihet	-3750
▁hälso	-3751
ceptab	-3752
▁conflict	-3753
▁hear	-3754
▁around	-3755
▁value	-3756
▁hard	-3757
▁diskutera	-3758
sbyg	-3759
▁correct	-3760
▁högre	-3761
▁speech	-3762
▁amerik	-3763
▁gemenskapen	-3764
▁package	-3765
▁undantag	-3766
▁presented	-3767
▁bistånd	-3768
▁icke	-3769
▁mång	-3770
▁nature	-3771
▁tving	-3772
mind	-3773
▁relevant	-3774
▁räk	-3775
skrid	-3776
▁honom	-3777
▁tillhanda	-3778
▁immedi	-3779
▁mid	-3780
vika	-3781
line	-3782
▁retur	-3783
▁face	-3784
▁vital	-3785
▁antalet	-3786
▁fär	-3787
ningsl	-3788
▁allvarliga	-3789
▁unemploy	-3790
limin	-3791
▁målet	-3792
▁hänvis	-3793
ination	-3794
ilt	-3795
▁betra	-3796
▁determin	-3797
fta	-3798
more	-3799
▁helst	-3800
läg	-3801
sh	-3802
▁model	-3803
lant	-3804
▁grant	-3805
▁misst	-3806
▁närm	-3807
▁dä	-3808
▁medan	-3809
▁bakom	-3810
▁subsidiar	-3811
onder	-3812
▁bedöm	-3813
▁hy	-3814
▁bestäm	-3815
änsl	-3816
▁amster	-3817
▁criminal	-3818
▁nära	-3819
▁utslä	-3820
▁thanks	-3821
kast	-3822
▁parag	-3823
▁doubt	-3824
tas	-3825
▁såväl	-3826
▁minutes	-3827
▁gemensamt	-3828
▁five	-3829
▁amsterdam	-3830
▁priorities	-3831
▁utst	-3832
frågan	-3833
▁kommit	-3834
sektorn	-3835
▁invandring	-3836
▁culture	-3837
▁separ	-3838
▁vice	-3839
▁furthermore	-3840
▁immigration	-3841
änka	-3842
▁anslutning	-3843
▁using	-3844
▁principen	-3845
▁called	-3846
▁initiatives	-3847
uate	-3848
▁tillgäng	-3849
▁utform	-3850
▁bakgrund	-3851
▁solidaritet	-3852
ektiv	-3853
illfäll	-3854
here	-3855
▁enhet	-3856
▁purs	-3857
▁scient	-3858
▁tillämpas	-3859
▁afgh	-3860
▁waste	-3861
förslag	-3862
▁avoid	-3863
▁hal	-3864
repp	-3865
▁diskrimin	-3866
▁britt	-3867
▁stage	-3868
▁undersök	-3869
oss	-3870
▁resultatet	-3871
▁fördrag	-3872
struction	-3873
▁happ	-3874
rest	-3875
fullt	-3876
▁movement	-3877
ifrån	-3878
sledamoten	-3879
▁lear	-3880
▁recently	-3881
empelvis	-3882
▁era	-3883
▁monetary	-3884
▁förny	-3885
▁challenges	-3886
▁landsbyg	-3887
▁hälsa	-3888
▁satis	-3889
▁old	-3890
uel	-3891
▁cam	-3892
▁påverk	-3893
▁death	-3894
▁nästan	-3895
▁senare	-3896
▁signal	-3897
▁mess	-3898
▁tekniska	-3899
▁opposition	-3900
illfällen	-3901
▁prepared	-3902
▁utvidgningen	-3903
▁underta	-3904
▁nämnd	-3905
förs	-3906
ania	-3907
▁statist	-3908
▁samhället	-3909
encies	-3910
▁fellow	-3911
▁pressure	-3912
▁förf	-3913
▁across	-3914
of	-3915
▁stark	-3916
▁stopp	-3917
pekter	-3918
▁regret	-3919
▁bered	-3920
▁reached	-3921
▁forsk	-3922
uses	-3923
ain	-3924
▁räd	-3925
åtgärder	-3926
▁undvika	-3927
▁talking	-3928
▁wa	-3929
▁ten	-3930
▁ställa	-3931
▁globala	-3932
▁sea	-3933
▁powers	-3934
▁offentlig	-3935
▁media	-3936
▁emissions	-3937
▁borders	-3938
▁lä	-3939
▁levels	-3940
▁task	-3941
mitted	-3942
▁serb	-3943
perience	-3944
åter	-3945
▁ine	-3946
▁däre	-3947
▁private	-3948
▁vars	-3949
▁lea	-3950
▁mal	-3951
▁låta	-3952
irektiv	-3953
▁innehåll	-3954
▁fyra	-3955
▁bind	-3956
▁används	-3957
▁detal	-3958
▁deli	-3959
▁överenskommelse	-3960
erier	-3961
▁föra	-3962
▁clos	-3963
emang	-3964
▁top	-3965
▁medium	-3966
por	-3967
▁sectors	-3968
theless	-3969
▁samord	-3970
pressed	-3971
▁nevertheless	-3972
▁decided	-3973
term	-3974
▁ärade	-3975
▁west	-3976
ote	-3977
▁capital	-3978
▁home	-3979
iterr	-3980
▁tillfälle	-3981
▁included	-3982
▁victims	-3983
▁enskilda	-3984
▁defence	-3985
▁implemented	-3986
ench	-3987
▁involve	-3988
▁positiva	-3989
▁billion	-3990
ugh	-3991
▁gam	-3992
▁betydande	-3993
net	-3994
▁respond	-3995
▁remind	-3996
föra	-3997
▁cyp	-3998
▁förbättring	-3999
vik	-4000
▁angående	-4001
sikter	-4002
▁regioner	-4003
▁investeringar	-4004
▁fullt	-4005
▁renew	-4006
▁riktlin	-4007
▁raised	-4008
ilar	-4009
▁additional	-4010
▁demonstr	-4011
rought	-4012
▁log	-4013
▁företagen	-4014
▁förhindra	-4015
▁amount	-4016
▁paragraph	-4017
▁värde	-4018
▁åstad	-4019
ception	-4020
▁republic	-4021
komma	-4022
▁ställning	-4023
▁mode	-4024
▁direction	-4025
▁framåt	-4026
▁sysselsätt	-4027
vill	-4028
▁genuine	-4029
▁avsikt	-4030
▁reflect	-4031
▁regionala	-4032
samma	-4033
▁bnumnumnum	-4034
ärna	-4035
di	-4036
▁domstol	-4037
▁konkreta	-4038
rätten	-4039
▁reading	-4040
▁fol	-4041
▁industrial	-4042
▁fig	-4043
▁big	-4044
▁luft	-4045
▁formul	-4046
▁europeiskt	-4047
▁rail	-4048
▁kandid	-4049
▁bos	-4050
sledamöter	-4051
ges	-4052
▁slutet	-4053
utskottet	-4054
▁inb	-4055
▁coming	-4056
▁ire	-4057
▁tydlig	-4058
▁rural	-4059
▁light	-4060
ished	-4061
▁stå	-4062
▁disa	-4063
▁prem	-4064
▁french	-4065
▁hund	-4066
▁katastro	-4067
▁poll	-4068
▁förbindelser	-4069
erats	-4070
▁snarare	-4071
▁gyn	-4072
sområdet	-4073
▁absolutely	-4074
assa	-4075
▁capac	-4076
▁whose	-4077
une	-4078
▁reduction	-4079
▁omedel	-4080
▁göras	-4081
▁organisationer	-4082
▁makt	-4083
▁plats	-4084
▁motion	-4085
ierna	-4086
▁supported	-4087
▁språk	-4088
uickly	-4089
▁bad	-4090
▁disast	-4091
▁enable	-4092
▁föredragningsl	-4093
etag	-4094
▁portugal	-4095
▁öppenhet	-4096
▁egent	-4097
▁agency	-4098
▁menar	-4099
▁effort	-4100
▁beroende	-4101
▁effects	-4102
▁outside	-4103
▁dagens	-4104
ordbruks	-4105
▁nationell	-4106
van	-4107
▁tol	-4108
▁konsumenterna	-4109
reh	-4110
▁glöm	-4111
lakt	-4112
ators	-4113
▁established	-4114
▁reality	-4115
▁lokala	-4116
▁cut	-4117
iciency	-4118
▁berörda	-4119
▁crime	-4120
▁run	-4121
▁prices	-4122
▁businesses	-4123
▁samtliga	-4124
skatt	-4125
▁rapporteurs	-4126
▁france	-4127
▁öst	-4128
▁aust	-4129
ulf	-4130
verka	-4131
▁sammanhållning	-4132
ställd	-4133
▁similar	-4134
▁straff	-4135
▁coordination	-4136
▁lite	-4137
▁anledning	-4138
ationen	-4139
▁kunnat	-4140
▁reforms	-4141
▁moreover	-4142
änta	-4143
▁protokollet	-4144
▁sammanhang	-4145
▁fria	-4146
▁ministers	-4147
▁swed	-4148
▁natural	-4149
▁condu	-4150
▁fed	-4151
▁almost	-4152
▁competitiveness	-4153
▁christ	-4154
▁completely	-4155
▁principer	-4156
▁toppmötet	-4157
▁agera	-4158
▁produkt	-4159
elsen	-4160
▁återigen	-4161
▁rä	-4162
▁turn	-4163
engen	-4164
▁afghan	-4165
erc	-4166
▁delta	-4167
▁influ	-4168
▁uppfattning	-4169
▁becom	-4170
▁confir	-4171
strategin	-4172
▁lin	-4173
▁schengen	-4174
▁official	-4175
▁förhandlingar	-4176
olid	-4177
idel	-4178
▁convin	-4179
▁lagstiftningen	-4180
▁giving	-4181
▁ireland	-4182
▁dise	-4183
▁price	-4184
▁bevis	-4185
▁poor	-4186
▁barroso	-4187
▁fatta	-4188
▁befint	-4189
▁bevil	-4190
▁representatives	-4191
▁ensuring	-4192
▁highlight	-4193
sibilities	-4194
▁plen	-4195
▁intell	-4196
▁lot	-4197
▁adoption	-4198
▁critic	-4199
▁democrats	-4200
ying	-4201
▁positivt	-4202
▁gemenskaps	-4203
▁georg	-4204
▁minor	-4205
▁note	-4206
▁ansträngningar	-4207
▁sal	-4208
▁living	-4209
▁emerg	-4210
▁guidel	-4211
▁dvs	-4212
iseringen	-4213
▁est	-4214
▁parts	-4215
▁encourage	-4216
ope	-4217
iterrane	-4218
▁perspect	-4219
uently	-4220
▁cause	-4221
▁tour	-4222
relse	-4223
skaff	-4224
betänk	-4225
▁företrädare	-4226
▁tysk	-4227
fatta	-4228
▁ansvars	-4229
iterranean	-4230
▁riktigt	-4231
ärnväg	-4232
▁fördel	-4233
ura	-4234
▁sätta	-4235
▁riktning	-4236
serna	-4237
▁befinner	-4238
▁sikt	-4239
▁distrib	-4240
▁received	-4241
▁pt	-4242
▁brought	-4243
cide	-4244
▁tve	-4245
▁circum	-4246
▁medic	-4247
häl	-4248
incipen	-4249
▁applied	-4250
ifi	-4251
▁fo	-4252
▁apr	-4253
ting	-4254
▁parter	-4255
sprocessen	-4256
▁assessment	-4257
▁creating	-4258
omp	-4259
▁authority	-4260
▁inställ	-4261
▁garant	-4262
▁kunskap	-4263
▁alternativ	-4264
etter	-4265
elf	-4266
▁april	-4267
åra	-4268
▁möte	-4269
▁possibility	-4270
▁bygg	-4271
tent	-4272
▁läk	-4273
▁mi	-4274
▁approved	-4275
emot	-4276
▁rätten	-4277
▁behind	-4278
plom	-4279
▁hantera	-4280
▁leaders	-4281
▁diplom	-4282
▁heard	-4283
▁teknik	-4284
▁påpeka	-4285
▁candid	-4286
▁profession	-4287
▁conduct	-4288
andra	-4289
▁ombud	-4290
aking	-4291
rö	-4292
▁bygga	-4293
▁eget	-4294
▁technology	-4295
▁hanter	-4296
▁took	-4297
▁ledamöterna	-4298
▁äga	-4299
▁huvudsak	-4300
▁proport	-4301
▁stop	-4302
▁flykt	-4303
▁knowledge	-4304
▁treatment	-4305
▁problemen	-4306
▁skatte	-4307
▁minimum	-4308
▁underteck	-4309
▁away	-4310
▁yrkes	-4311
ruption	-4312
▁oer	-4313
▁väld	-4314
▁paper	-4315
▁unac	-4316
▁starkt	-4317
▁förhand	-4318
▁ökad	-4319
▁folket	-4320
▁utsträck	-4321
raft	-4322
▁discussed	-4323
▁olag	-4324
▁takes	-4325
▁konvention	-4326
▁else	-4327
▁produktion	-4328
▁närmare	-4329
▁råder	-4330
unch	-4331
▁oerhör	-4332
▁practical	-4333
pose	-4334
▁ekonomin	-4335
ols	-4336
▁obviously	-4337
▁förstår	-4338
▁gränser	-4339
ances	-4340
▁goods	-4341
▁fastställa	-4342
hold	-4343
▁ii	-4344
▁allmänhet	-4345
▁arbetstagare	-4346
ana	-4347
▁guidelines	-4348
▁verkliga	-4349
▁discussions	-4350
▁huge	-4351
▁övriga	-4352
▁infrastruct	-4353
▁ade	-4354
▁remains	-4355
▁ständ	-4356
▁gånger	-4357
▁kvalitet	-4358
▁kommentar	-4359
▁hennes	-4360
▁övrigt	-4361
isc	-4362
ripande	-4363
erings	-4364
områden	-4365
▁events	-4366
▁grupper	-4367
▁fart	-4368
▁stim	-4369
▁consist	-4370
▁avskaff	-4371
itive	-4372
▁perman	-4373
▁programmet	-4374
▁öppna	-4375
▁solutions	-4376
prises	-4377
▁vägen	-4378
▁administration	-4379
ously	-4380
▁provision	-4381
▁recon	-4382
frika	-4383
▁gärna	-4384
färd	-4385
▁impos	-4386
▁bear	-4387
▁discrimination	-4388
▁eval	-4389
▁capacity	-4390
▁tun	-4391
urella	-4392
iver	-4393
▁förordningen	-4394
▁unacceptable	-4395
▁british	-4396
▁lat	-4397
▁africa	-4398
▁tio	-4399
▁measure	-4400
▁che	-4401
▁confidence	-4402
▁days	-4403
▁månader	-4404
▁oac	-4405
sman	-4406
▁family	-4407
▁proceed	-4408
▁oacceptab	-4409
▁scientific	-4410
▁humanitarian	-4411
▁unemployment	-4412
▁frankrike	-4413
▁flesta	-4414
änar	-4415
▁compar	-4416
betal	-4417
▁utsträckning	-4418
▁uttrycka	-4419
▁användas	-4420
▁efficiency	-4421
▁effectively	-4422
▁befintliga	-4423
▁stimul	-4424
▁asylum	-4425
▁attack	-4426
▁aspekter	-4427
▁gläder	-4428
▁affected	-4429
▁eth	-4430
▁supply	-4431
▁tog	-4432
▁substant	-4433
▁oil	-4434
▁egentligen	-4435
▁fiske	-4436
▁scope	-4437
▁stater	-4438
ped	-4439
▁instämmer	-4440
▁precisely	-4441
▁institutional	-4442
▁aimed	-4443
▁aktuella	-4444
▁function	-4445
▁understry	-4446
▁tydliga	-4447
▁ersätt	-4448
▁kandidat	-4449
▁blev	-4450
▁förtroende	-4451
ssam	-4452
uge	-4453
▁skapar	-4454
▁anställ	-4455
atest	-4456
▁hitta	-4457
aging	-4458
uni	-4459
▁mångfal	-4460
▁ratific	-4461
lat	-4462
▁avslutad	-4463
roat	-4464
▁ste	-4465
sordförande	-4466
▁cnumnumnum	-4467
▁omständ	-4468
▁mut	-4469
▁improving	-4470
▁faktor	-4471
▁independent	-4472
egu	-4473
enh	-4474
industrin	-4475
▁lösningar	-4476
▁dru	-4477
▁administrative	-4478
▁considered	-4479
▁hinder	-4480
▁safegu	-4481
▁säkra	-4482
liv	-4483
▁arr	-4484
▁developed	-4485
▁tillf	-4486
▁veta	-4487
▁condem	-4488
▁evid	-4489
mental	-4490
▁gången	-4491
▁ce	-4492
▁sitting	-4493
len	-4494
▁code	-4495
▁obtain	-4496
▁contribute	-4497
▁skil	-4498
uder	-4499
äkt	-4500
▁höga	-4501
▁bred	-4502
▁grunden	-4503
pid	-4504
▁refuge	-4505
▁betrakt	-4506
▁reference	-4507
uted	-4508
▁befolkningen	-4509
▁neder	-4510
▁nämna	-4511
▁syftet	-4512
▁sort	-4513
▁pet	-4514
uda	-4515
▁ky	-4516
ports	-4517
▁trying	-4518
▁rättvisa	-4519
▁uts	-4520
▁anpass	-4521
▁användning	-4522
▁ign	-4523
tim	-4524
undet	-4525
lingen	-4526
▁gentemot	-4527
▁värder	-4528
▁honourable	-4529
▁investig	-4530
itation	-4531
▁difficulties	-4532
▁divers	-4533
lder	-4534
tta	-4535
nt	-4536
▁grundval	-4537
▁providing	-4538
enti	-4539
▁enterprises	-4540
▁oav	-4541
▁tillämpa	-4542
▁lägger	-4543
▁världs	-4544
kommer	-4545
▁korre	-4546
▁särskild	-4547
▁institutionerna	-4548
▁forces	-4549
▁rate	-4550
▁ändra	-4551
▁frågorna	-4552
▁behandlingen	-4553
bry	-4554
▁stras	-4555
▁bidrar	-4556
▁sättet	-4557
▁väldigt	-4558
▁content	-4559
▁conclusions	-4560
ograph	-4561
system	-4562
▁accordance	-4563
esid	-4564
▁varandra	-4565
värt	-4566
▁side	-4567
ät	-4568
▁lär	-4569
ionen	-4570
▁dig	-4571
▁sektorn	-4572
▁shown	-4573
▁föränd	-4574
bör	-4575
▁brittiska	-4576
farandet	-4577
▁animal	-4578
▁multil	-4579
▁circumstances	-4580
omb	-4581
▁bestämmelserna	-4582
▁effekt	-4583
ktiva	-4584
▁message	-4585
▁ry	-4586
▁trä	-4587
▁connection	-4588
ämställd	-4589
▁combat	-4590
▁strategic	-4591
▁ökar	-4592
▁fungerar	-4593
savtal	-4594
▁tit	-4595
ender	-4596
enge	-4597
▁lyckas	-4598
▁arbetslös	-4599
▁design	-4600
▁half	-4601
▁implementing	-4602
▁nr	-4603
spect	-4604
▁verket	-4605
▁overall	-4606
▁ul	-4607
▁vapen	-4608
▁promoting	-4609
▁firm	-4610
ash	-4611
▁beträffande	-4612
▁specifically	-4613
▁lett	-4614
utting	-4615
▁calls	-4616
▁förlor	-4617
▁demonst	-4618
▁bri	-4619
byggande	-4620
▁omfattar	-4621
ssels	-4622
▁säkert	-4623
ureau	-4624
▁fn	-4625
▁fns	-4626
▁kontroller	-4627
▁aspekt	-4628
▁alloc	-4629
▁occas	-4630
▁challenge	-4631
▁budskap	-4632
msesid	-4633
▁benefits	-4634
▁provides	-4635
▁regionen	-4636
▁intens	-4637
▁self	-4638
▁committed	-4639
▁advant	-4640
▁strasbourg	-4641
▁irak	-4642
alled	-4643
▁attempt	-4644
▁observ	-4645
▁betyder	-4646
tryck	-4647
▁ömsesid	-4648
con	-4649
stic	-4650
▁krist	-4651
ubli	-4652
▁natura	-4653
sf	-4654
▁svåra	-4655
▁medelhav	-4656
▁beror	-4657
▁lives	-4658
▁plans	-4659
ides	-4660
▁gott	-4661
▁wrong	-4662
sättningar	-4663
▁participation	-4664
▁avfall	-4665
▁påminna	-4666
▁väst	-4667
▁regime	-4668
rust	-4669
▁goes	-4670
▁allowed	-4671
▁terrorist	-4672
▁duty	-4673
▁weak	-4674
▁ibland	-4675
▁consideration	-4676
▁vo	-4677
▁lägg	-4678
best	-4679
▁oerhört	-4680
▁helhet	-4681
▁övergång	-4682
▁valuta	-4683
▁target	-4684
▁patent	-4685
▁yester	-4686
▁bureau	-4687
▁ordet	-4688
▁comments	-4689
▁obser	-4690
▁yesterday	-4691
▁meddelande	-4692
▁euron	-4693
▁lyss	-4694
▁lämpligt	-4695
▁kring	-4696
▁värd	-4697
▁created	-4698
▁spela	-4699
▁övertygad	-4700
▁fear	-4701
oms	-4702
▁fond	-4703
▁demonstrat	-4704
▁reformer	-4705
▁propose	-4706
▁construct	-4707
atiska	-4708
▁stated	-4709
▁afghanistan	-4710
▁cat	-4711
▁bey	-4712
▁spok	-4713
▁eumedborg	-4714
▁date	-4715
▁beyond	-4716
▁framgångs	-4717
▁return	-4718
▁compreh	-4719
▁finna	-4720
skridande	-4721
▁använder	-4722
▁debatter	-4723
crib	-4724
▁verklig	-4725
way	-4726
▁angel	-4727
▁behör	-4728
▁germany	-4729
▁slovak	-4730
▁synpunkt	-4731
▁rightly	-4732
▁considerable	-4733
lam	-4734
cement	-4735
▁successful	-4736
▁kommitt	-4737
▁purpose	-4738
eks	-4739
▁forms	-4740
▁ville	-4741
▁folkhäl	-4742
▁session	-4743
▁beginning	-4744
▁col	-4745
rary	-4746
▁longterm	-4747
▁counter	-4748
▁landsbygd	-4749
oren	-4750
▁cop	-4751
▁rev	-4752
ounts	-4753
▁uppfylla	-4754
▁befogenheter	-4755
▁gränsöver	-4756
etim	-4757
▁councils	-4758
change	-4759
▁allmänheten	-4760
▁förändringar	-4761
ric	-4762
▁ombudsman	-4763
har	-4764
▁behandlas	-4765
▁steps	-4766
▁innebära	-4767
▁history	-4768
▁sprid	-4769
▁brussels	-4770
▁inrätta	-4771
▁receive	-4772
▁medborgarnas	-4773
lare	-4774
river	-4775
▁accepted	-4776
▁border	-4777
▁commer	-4778
▁closely	-4779
▁operation	-4780
▁beklagar	-4781
▁konta	-4782
▁minoritet	-4783
▁öster	-4784
▁remember	-4785
▁rörlighet	-4786
▁worth	-4787
▁mott	-4788
ousand	-4789
anta	-4790
▁lab	-4791
▁ti	-4792
▁spir	-4793
▁häv	-4794
▁delen	-4795
▁hår	-4796
▁begäran	-4797
dra	-4798
▁misslyck	-4799
▁tri	-4800
▁tvive	-4801
▁thousand	-4802
▁chair	-4803
▁schem	-4804
▁konsekvenser	-4805
▁fördelar	-4806
▁pact	-4807
▁utsläpp	-4808
▁utmaningar	-4809
ias	-4810
▁ones	-4811
▁limit	-4812
▁omk	-4813
▁arrang	-4814
utveck	-4815
▁bod	-4816
isms	-4817
ological	-4818
oin	-4819
erely	-4820
▁dealing	-4821
▁simpli	-4822
▁tackar	-4823
ställande	-4824
▁don	-4825
▁privat	-4826
▁budgets	-4827
▁financing	-4828
ansport	-4829
uires	-4830
ograf	-4831
▁franska	-4832
rants	-4833
▁generation	-4834
▁sym	-4835
▁konstru	-4836
▁ek	-4837
▁brotts	-4838
▁fiskeri	-4839
▁hung	-4840
komst	-4841
▁ges	-4842
ares	-4843
gon	-4844
▁weeks	-4845
▁views	-4846
▁seriously	-4847
▁förbindelserna	-4848
▁compli	-4849
öma	-4850
▁urgent	-4851
▁någonting	-4852
bef	-4853
▁ganska	-4854
länder	-4855
sett	-4856
▁rein	-4857
▁commitments	-4858
ones	-4859
oy	-4860
▁appla	-4861
▁yttrande	-4862
▁relationship	-4863
▁ship	-4864
företag	-4865
▁önskar	-4866
▁lagts	-4867
▁age	-4868
▁cust	-4869
▁stödet	-4870
▁soc	-4871
▁sist	-4872
▁processen	-4873
▁referred	-4874
▁wanted	-4875
änga	-4876
▁medvetna	-4877
▁eunivå	-4878
▁proportion	-4879
▁åtaganden	-4880
▁målen	-4881
ria	-4882
▁febru	-4883
atsen	-4884
lier	-4885
ump	-4886
urd	-4887
▁käns	-4888
▁parlamentar	-4889
▁constitutional	-4890
stand	-4891
klag	-4892
▁introduction	-4893
burg	-4894
▁directly	-4895
▁ack	-4896
▁givet	-4897
▁diskuterar	-4898
▁colleague	-4899
sec	-4900
troll	-4901
▁utmärkta	-4902
▁civila	-4903
▁nät	-4904
▁överg	-4905
▁rättslig	-4906
▁irland	-4907
▁koncent	-4908
atserna	-4909
▁röstat	-4910
▁inleda	-4911
▁speaking	-4912
fonden	-4913
▁ways	-4914
▁contract	-4915
ourn	-4916
trem	-4917
▁rapid	-4918
▁sty	-4919
▁specifika	-4920
▁genomförande	-4921
verkan	-4922
ategor	-4923
▁ansvaret	-4924
fulla	-4925
▁decide	-4926
iture	-4927
▁mediterranean	-4928
▁nl	-4929
▁utifrån	-4930
älvklar	-4931
ton	-4932
▁engagemang	-4933
dle	-4934
▁mars	-4935
▁positiv	-4936
▁amerikanska	-4937
sprogram	-4938
▁igenom	-4939
▁kontin	-4940
resp	-4941
▁veh	-4942
▁kapital	-4943
▁annual	-4944
▁svårigheter	-4945
öl	-4946
▁operat	-4947
▁halv	-4948
▁vänt	-4949
▁leave	-4950
▁diskriminering	-4951
orks	-4952
▁frukt	-4953
▁setting	-4954
▁supporting	-4955
▁mobil	-4956
▁produce	-4957
▁tyskland	-4958
▁fanns	-4959
dan	-4960
▁förenade	-4961
co	-4962
▁police	-4963
▁bryssel	-4964
▁material	-4965
räg	-4966
▁sufficient	-4967
▁gått	-4968
▁effektiva	-4969
▁hom	-4970
ured	-4971
▁fung	-4972
▁intended	-4973
arbete	-4974
▁noggr	-4975
▁competitive	-4976
uff	-4977
uot	-4978
▁lämna	-4979
▁genet	-4980
▁säkerheten	-4981
▁europeans	-4982
betänkandet	-4983
ämställdhet	-4984
▁combating	-4985
▁looking	-4986
▁oför	-4987
head	-4988
▁intervention	-4989
▁wom	-4990
▁campa	-4991
▁ytterst	-4992
▁ämnen	-4993
▁försök	-4994
▁mediumsi	-4995
▁march	-4996
▁fra	-4997
▁sometim	-4998
ige	-4999
▁mus	-5000
▁gamla	-5001
▁rumän	-5002
▁appl	-5003
▁efficient	-5004
body	-5005
▁establishing	-5006
itude	-5007
sprodu	-5008
▁gav	-5009
▁fungera	-5010
▁prime	-5011
bilitet	-5012
▁arrest	-5013
anuary	-5014
▁mandat	-5015
▁trovärd	-5016
▁tourism	-5017
▁highly	-5018
apt	-5019
▁omkring	-5020
▁utgifter	-5021
▁elimin	-5022
ened	-5023
▁fulf	-5024
▁tillåt	-5025
▁representative	-5026
vida	-5027
ensus	-5028
▁kräva	-5029
▁paid	-5030
▁anything	-5031
▁perspective	-5032
sområden	-5033
▁uttalande	-5034
ugg	-5035
▁affect	-5036
ynam	-5037
▁fattiga	-5038
▁evalu	-5039
▁interp	-5040
rus	-5041
▁higher	-5042
ledes	-5043
▁prevention	-5044
entligt	-5045
▁activity	-5046
▁utarbeta	-5047
▁tillfreds	-5048
▁görs	-5049
▁appear	-5050
▁myndigheter	-5051
▁infrastruktur	-5052
▁ambitious	-5053
öt	-5054
pråk	-5055
anuari	-5056
▁concent	-5057
▁sometimes	-5058
▁greece	-5059
▁handlingsplan	-5060
penditure	-5061
▁fil	-5062
▁risks	-5063
▁demands	-5064
▁framställ	-5065
▁nato	-5066
▁useful	-5067
ued	-5068
ssätt	-5069
ämför	-5070
▁deltagande	-5071
▁bodies	-5072
▁type	-5073
▁reducing	-5074
▁således	-5075
▁properly	-5076
▁statements	-5077
▁slags	-5078
▁element	-5079
▁caused	-5080
▁utvidgning	-5081
▁sit	-5082
▁applåder	-5083
ffektiv	-5084
▁bla	-5085
▁office	-5086
ologiska	-5087
▁liknande	-5088
▁disp	-5089
rädet	-5090
▁strengthening	-5091
▁uppenbart	-5092
▁alone	-5093
▁förmån	-5094
▁modell	-5095
▁inh	-5096
omröst	-5097
▁tillämpning	-5098
▁comple	-5099
▁developments	-5100
▁dynam	-5101
▁vehic	-5102
▁comment	-5103
▁chance	-5104
▁adapt	-5105
▁myself	-5106
▁deg	-5107
▁förvaltning	-5108
▁shows	-5109
▁lyckats	-5110
▁brief	-5111
▁irish	-5112
mes	-5113
▁bild	-5114
▁uppmana	-5115
▁increasingly	-5116
▁cap	-5117
▁limited	-5118
▁permanent	-5119
▁directives	-5120
beslut	-5121
rym	-5122
▁emphasise	-5123
▁incor	-5124
domstol	-5125
▁tänka	-5126
▁symbol	-5127
▁lev	-5128
▁ford	-5129
grän	-5130
▁omedelbart	-5131
▁sad	-5132
▁användningen	-5133
▁comprehensive	-5134
▁islam	-5135
▁vem	-5136
▁eastern	-5137
san	-5138
▁revisions	-5139
▁known	-5140
▁documents	-5141
råkrat	-5142
▁föresk	-5143
▁ögon	-5144
▁secret	-5145
riva	-5146
▁improved	-5147
▁perf	-5148
▁calling	-5149
▁achieving	-5150
▁katastrof	-5151
▁network	-5152
aket	-5153
▁genomföras	-5154
▁middle	-5155
tts	-5156
▁discussing	-5157
▁infrastructure	-5158
ini	-5159
▁deser	-5160
▁regeringar	-5161
▁utvecklas	-5162
iets	-5163
▁charter	-5164
▁avslutningsvis	-5165
▁hus	-5166
verse	-5167
▁whom	-5168
▁early	-5169
▁study	-5170
enn	-5171
▁producers	-5172
äkra	-5173
▁rättvis	-5174
▁conclude	-5175
rats	-5176
▁aims	-5177
▁inkl	-5178
ierade	-5179
▁åtgärderna	-5180
▁förhopp	-5181
▁trust	-5182
▁mekanism	-5183
icking	-5184
kte	-5185
▁migration	-5186
border	-5187
▁inklusive	-5188
▁represents	-5189
overn	-5190
▁nämnde	-5191
▁wat	-5192
▁klara	-5193
erate	-5194
▁bygger	-5195
anim	-5196
mynd	-5197
▁gives	-5198
▁tvivel	-5199
ram	-5200
▁da	-5201
pektiv	-5202
▁kräv	-5203
▁regist	-5204
sch	-5205
▁toler	-5206
▁valet	-5207
▁acceptera	-5208
verg	-5209
▁översyn	-5210
▁uk	-5211
▁enh	-5212
ativt	-5213
▁staff	-5214
▁language	-5215
ocol	-5216
amber	-5217
wise	-5218
ury	-5219
▁givetvis	-5220
▁deep	-5221
▁liberalisation	-5222
direktiv	-5223
sem	-5224
ournal	-5225
▁privata	-5226
itable	-5227
▁safeguard	-5228
▁rent	-5229
▁deliver	-5230
ita	-5231
▁happened	-5232
sn	-5233
▁antogs	-5234
▁unga	-5235
▁allvarligt	-5236
enden	-5237
▁lämpliga	-5238
▁konst	-5239
▁beslutet	-5240
▁welcom	-5241
▁sö	-5242
rete	-5243
action	-5244
▁conclud	-5245
napp	-5246
▁trygg	-5247
aga	-5248
▁later	-5249
▁verkligt	-5250
▁dep	-5251
▁kopp	-5252
▁elekt	-5253
▁crossborder	-5254
▁förebyggande	-5255
öva	-5256
▁motiver	-5257
▁recover	-5258
▁manner	-5259
period	-5260
ugos	-5261
▁interpret	-5262
▁oavsett	-5263
▁forum	-5264
▁scho	-5265
ripa	-5266
▁animals	-5267
▁otill	-5268
▁pped	-5269
▁kränk	-5270
bok	-5271
▁uppskatt	-5272
▁unanim	-5273
uellt	-5274
▁korrekt	-5275
▁contrary	-5276
▁ifr	-5277
▁lov	-5278
▁marg	-5279
▁moral	-5280
▁facilit	-5281
▁prioriteringar	-5282
tande	-5283
▁produced	-5284
▁stabilitet	-5285
mot	-5286
anken	-5287
▁höra	-5288
▁urge	-5289
▁kallade	-5290
overnmental	-5291
▁siff	-5292
▁läkem	-5293
▁socialist	-5294
▁samordning	-5295
▁socialdemokrat	-5296
▁utmaning	-5297
▁acknow	-5298
sätter	-5299
▁constit	-5300
▁concrete	-5301
▁balanced	-5302
▁avregl	-5303
▁anledningen	-5304
▁globalisation	-5305
▁thought	-5306
▁betala	-5307
▁socalled	-5308
▁recognise	-5309
likt	-5310
▁glömma	-5311
▁suffer	-5312
▁damage	-5313
▁arbetsordningen	-5314
edly	-5315
ordbruket	-5316
▁recognition	-5317
▁utmärkt	-5318
fik	-5319
▁skog	-5320
redit	-5321
▁avser	-5322
▁ingår	-5323
▁convinced	-5324
▁praktiken	-5325
cken	-5326
atlant	-5327
äkring	-5328
▁compens	-5329
▁wants	-5330
▁dev	-5331
▁stock	-5332
reci	-5333
ugosla	-5334
▁ändringar	-5335
▁ställer	-5336
▁behöva	-5337
▁bråd	-5338
▁earlier	-5339
▁launch	-5340
uter	-5341
sländer	-5342
uropeiska	-5343
▁tull	-5344
▁gal	-5345
▁kostnader	-5346
▁förhållande	-5347
▁dead	-5348
▁vision	-5349
▁befolkning	-5350
▁fång	-5351
▁rise	-5352
▁varken	-5353
▁building	-5354
▁nytta	-5355
▁proba	-5356
▁byråkrat	-5357
▁arm	-5358
▁väs	-5359
▁outcome	-5360
icit	-5361
▁allmänt	-5362
▁uppmuntra	-5363
▁enfor	-5364
▁susp	-5365
▁skyddet	-5366
▁governance	-5367
ässiga	-5368
opol	-5369
▁repla	-5370
statliga	-5371
▁elements	-5372
▁åstadkomma	-5373
cel	-5374
▁vägnar	-5375
▁kommunik	-5376
▁punkten	-5377
▁alternative	-5378
ision	-5379
▁bekräft	-5380
itors	-5381
ements	-5382
▁antas	-5383
oph	-5384
ged	-5385
▁constant	-5386
▁kungar	-5387
apan	-5388
▁version	-5389
▁lade	-5390
▁omständigheter	-5391
▁hor	-5392
▁polis	-5393
▁otherwise	-5394
ktioner	-5395
▁kungarik	-5396
pert	-5397
ource	-5398
▁ökat	-5399
▁fraud	-5400
▁loss	-5401
▁yttre	-5402
villkor	-5403
▁ras	-5404
▁says	-5405
ream	-5406
rapport	-5407
▁kommissionären	-5408
▁negative	-5409
▁added	-5410
▁diskussioner	-5411
▁alban	-5412
▁namn	-5413
▁opening	-5414
ression	-5415
▁constructive	-5416
▁motor	-5417
▁concept	-5418
ällor	-5419
▁accepter	-5420
▁optim	-5421
▁facing	-5422
rare	-5423
▁försikt	-5424
▁thinking	-5425
▁commercial	-5426
▁italien	-5427
ours	-5428
itten	-5429
▁consensus	-5430
ming	-5431
▁laws	-5432
▁ambition	-5433
▁förbli	-5434
▁becoming	-5435
▁traged	-5436
▁recommendations	-5437
▁förbud	-5438
▁enhäll	-5439
▁appreci	-5440
▁analysis	-5441
▁yes	-5442
▁differences	-5443
making	-5444
▁fartyg	-5445
▁committees	-5446
▁succeed	-5447
▁acceptable	-5448
▁declaration	-5449
▁förväntar	-5450
▁practices	-5451
acy	-5452
aterala	-5453
abl	-5454
▁autom	-5455
▁persons	-5456
▁förutsättning	-5457
▁kväll	-5458
▁grekland	-5459
▁tidpunkt	-5460
▁latin	-5461
aktligen	-5462
läm	-5463
▁tä	-5464
▁hind	-5465
▁delay	-5466
▁påpek	-5467
▁tillverk	-5468
▁mechanism	-5469
▁analy	-5470
medel	-5471
▁company	-5472
▁grö	-5473
▁uppt	-5474
▁sources	-5475
▁spanish	-5476
▁uttryckt	-5477
lopp	-5478
▁redo	-5479
▁introduce	-5480
▁nice	-5481
▁influence	-5482
▁introduced	-5483
▁manu	-5484
▁samhälle	-5485
▁reduced	-5486
▁reglerna	-5487
▁ke	-5488
▁dram	-5489
▁record	-5490
▁dangerous	-5491
▁block	-5492
ciliation	-5493
▁handeln	-5494
▁långsikt	-5495
▁penal	-5496
▁undermin	-5497
▁förenk	-5498
ubliken	-5499
▁förslagen	-5500
▁metod	-5501
▁investering	-5502
▁american	-5503
▁thirdly	-5504
▁italy	-5505
▁forest	-5506
▁transition	-5507
änstem	-5508
idents	-5509
bruk	-5510
inal	-5511
erika	-5512
▁candidate	-5513
tog	-5514
▁åsikter	-5515
ility	-5516
▁reserv	-5517
▁agencies	-5518
▁probably	-5519
▁upphov	-5520
▁högsta	-5521
▁announ	-5522
▁ink	-5523
▁försvara	-5524
▁king	-5525
▁egenskap	-5526
▁manufact	-5527
▁disch	-5528
▁ifrån	-5529
▁offici	-5530
▁targets	-5531
lik	-5532
▁gender	-5533
▁spirit	-5534
▁sku	-5535
▁speed	-5536
▁meps	-5537
skande	-5538
bal	-5539
uant	-5540
▁sound	-5541
▁willing	-5542
mat	-5543
ored	-5544
istence	-5545
▁romania	-5546
▁förfarande	-5547
▁raise	-5548
▁asking	-5549
igenom	-5550
ismen	-5551
erades	-5552
▁trag	-5553
▁isol	-5554
▁weap	-5555
▁säkerställa	-5556
▁failure	-5557
▁förfaranden	-5558
pression	-5559
▁sanctions	-5560
▁inställning	-5561
▁entirely	-5562
unda	-5563
▁...	-5564
▁kyot	-5565
▁kostnaderna	-5566
▁body	-5567
▁pointed	-5568
▁samråd	-5569
▁utgång	-5570
▁kontrollera	-5571
▁mäng	-5572
▁uteslut	-5573
▁mart	-5574
▁utby	-5575
rich	-5576
▁medlemmar	-5577
▁afrika	-5578
älvklart	-5579
▁temp	-5580
▁strict	-5581
▁closer	-5582
▁olyck	-5583
▁kolleg	-5584
▁strongly	-5585
▁samarbeta	-5586
▁fäng	-5587
▁integrated	-5588
▁behåll	-5589
▁balkan	-5590
▁metoder	-5591
▁tillämpningen	-5592
▁networks	-5593
ca	-5594
värda	-5595
▁intention	-5596
iction	-5597
▁spelar	-5598
iär	-5599
ught	-5600
ivill	-5601
▁methods	-5602
actly	-5603
▁kold	-5604
▁ihåg	-5605
okus	-5606
▁alls	-5607
▁treaties	-5608
acks	-5609
olitiska	-5610
▁ecu	-5611
▁försv	-5612
▁obligations	-5613
▁forget	-5614
▁bilateral	-5615
▁koldio	-5616
▁mission	-5617
▁låg	-5618
▁inrikes	-5619
▁establishment	-5620
▁anslag	-5621
eln	-5622
▁naturally	-5623
▁applause	-5624
▁commissioners	-5625
▁händer	-5626
laus	-5627
enomen	-5628
urance	-5629
▁spain	-5630
▁organised	-5631
▁defend	-5632
▁medveten	-5633
▁omö	-5634
▁round	-5635
ämt	-5636
iserade	-5637
▁independence	-5638
▁written	-5639
▁grön	-5640
▁refugees	-5641
▁front	-5642
ukdomar	-5643
▁sked	-5644
▁conta	-5645
▁taget	-5646
▁utom	-5647
anget	-5648
▁contact	-5649
▁fokus	-5650
▁prodi	-5651
▁stats	-5652
▁övervä	-5653
▁talade	-5654
ena	-5655
ruppen	-5656
▁nödvändig	-5657
▁oct	-5658
▁frivill	-5659
▁currency	-5660
▁uppenbar	-5661
ssäkerhet	-5662
▁na	-5663
ilst	-5664
▁ultim	-5665
▁ukraine	-5666
llt	-5667
▁protest	-5668
▁applies	-5669
▁western	-5670
ände	-5671
▁happy	-5672
▁whilst	-5673
▁rådsordförande	-5674
▁dro	-5675
▁transparent	-5676
▁kära	-5677
▁tillgängliga	-5678
▁ep	-5679
pper	-5680
▁upprep	-5681
▁syd	-5682
▁bedräg	-5683
▁chamber	-5684
▁informed	-5685
▁critical	-5686
▁improvement	-5687
▁förutom	-5688
▁transatlant	-5689
▁withdra	-5690
▁charact	-5691
▁referend	-5692
▁putting	-5693
ume	-5694
rala	-5695
gränsa	-5696
▁angeläg	-5697
▁incorpor	-5698
▁bris	-5699
▁gläd	-5700
ira	-5701
▁mutual	-5702
▁folkomröst	-5703
▁div	-5704
▁vitry	-5705
▁energik	-5706
▁kämp	-5707
▁köp	-5708
▁hop	-5709
▁premiär	-5710
agn	-5711
▁passag	-5712
vere	-5713
▁undersöka	-5714
ektet	-5715
▁goals	-5716
▁pakistan	-5717
▁laid	-5718
ukv	-5719
where	-5720
▁drawn	-5721
▁reply	-5722
▁communities	-5723
▁submitted	-5724
▁board	-5725
▁berätt	-5726
▁kammare	-5727
▁insyn	-5728
▁near	-5729
sy	-5730
▁informations	-5731
▁förn	-5732
▁consultation	-5733
▁addressed	-5734
iff	-5735
▁america	-5736
▁christian	-5737
▁der	-5738
▁medför	-5739
▁producent	-5740
▁mechanisms	-5741
▁association	-5742
ran	-5743
▁tvärt	-5744
▁erkänna	-5745
uropean	-5746
▁finance	-5747
▁ukraina	-5748
▁appeal	-5749
▁föreslagna	-5750
urid	-5751
▁transfer	-5752
▁enormous	-5753
▁rim	-5754
▁thousands	-5755
▁däri	-5756
▁godkänna	-5757
verks	-5758
▁growing	-5759
usion	-5760
uis	-5761
▁ideas	-5762
▁begränsa	-5763
▁protocol	-5764
▁införandet	-5765
fonderna	-5766
▁värderingar	-5767
▁stabilitets	-5768
orea	-5769
▁mainly	-5770
▁tacks	-5771
▁sensitive	-5772
▁capa	-5773
usent	-5774
▁övervakning	-5775
ikt	-5776
▁överför	-5777
▁italiens	-5778
▁åtagande	-5779
▁närma	-5780
▁kvinnors	-5781
▁brådskande	-5782
▁litet	-5783
▁landets	-5784
▁fas	-5785
enting	-5786
▁dealt	-5787
▁resultaten	-5788
▁undan	-5789
fts	-5790
▁choice	-5791
▁simple	-5792
▁koncentr	-5793
ågas	-5794
▁inbeg	-5795
▁påverkar	-5796
anda	-5797
▁debates	-5798
▁färd	-5799
fråga	-5800
coming	-5801
▁förfarandet	-5802
▁immediately	-5803
iella	-5804
ology	-5805
▁heart	-5806
▁lycka	-5807
▁managed	-5808
▁världens	-5809
▁understryka	-5810
▁tyska	-5811
▁comply	-5812
▁mottag	-5813
▁freedoms	-5814
▁renewable	-5815
▁industrin	-5816
▁recommendation	-5817
▁patient	-5818
▁änt	-5819
▁komplic	-5820
▁storb	-5821
▁äntligen	-5822
▁todays	-5823
▁belar	-5824
▁bekräfta	-5825
▁contains	-5826
uell	-5827
▁palestinian	-5828
▁send	-5829
▁tort	-5830
▁varor	-5831
usentals	-5832
oning	-5833
▁burden	-5834
▁mandate	-5835
▁sant	-5836
▁underlätta	-5837
hood	-5838
▁demokratin	-5839
▁spanien	-5840
▁trafficking	-5841
uft	-5842
▁technologies	-5843
ritann	-5844
▁nyck	-5845
▁storbritann	-5846
skraft	-5847
▁ökade	-5848
▁övergripande	-5849
▁belarus	-5850
▁administrativa	-5851
ypt	-5852
▁character	-5853
▁tillt	-5854
▁abol	-5855
ability	-5856
▁original	-5857
▁kulturella	-5858
▁prospect	-5859
▁faced	-5860
erierna	-5861
▁överväg	-5862
▁sovere	-5863
▁ahead	-5864
▁okt	-5865
▁gällande	-5866
▁guarantees	-5867
nads	-5868
▁leading	-5869
▁positions	-5870
▁sovereign	-5871
▁ingå	-5872
▁handels	-5873
▁ifrågas	-5874
▁rumänien	-5875
▁däremot	-5876
▁skol	-5877
▁oktober	-5878
▁kriterier	-5879
▁reakt	-5880
vist	-5881
▁understanding	-5882
▁unable	-5883
▁förverk	-5884
▁smes	-5885
▁militära	-5886
▁discharge	-5887
skonferensen	-5888
▁october	-5889
▁describ	-5890
▁tillhör	-5891
älvständ	-5892
▁erfarenhet	-5893
bel	-5894
▁pse	-5895
▁effekter	-5896
▁tillfället	-5897
▁finland	-5898
lines	-5899
▁påtryck	-5900
▁förfog	-5901
▁neither	-5902
▁ev	-5903
▁känsl	-5904
▁merely	-5905
▁bureauc	-5906
▁maritim	-5907
cco	-5908
▁remov	-5909
bak	-5910
▁react	-5911
▁genomförs	-5912
▁arbetsmarknaden	-5913
▁enorma	-5914
▁lam	-5915
▁diskussionen	-5916
▁funktions	-5917
▁tota	-5918
▁ständigt	-5919
sty	-5920
▁omfatta	-5921
▁röstar	-5922
▁interg	-5923
▁förklarar	-5924
uth	-5925
▁evidence	-5926
▁russian	-5927
▁centrala	-5928
▁easy	-5929
peg	-5930
▁veckan	-5931
▁strategin	-5932
▁safe	-5933
▁mista	-5934
▁monopol	-5935
▁promotion	-5936
▁inträff	-5937
utbild	-5938
▁socialt	-5939
lit	-5940
▁traffic	-5941
▁disaster	-5942
ese	-5943
▁continuing	-5944
enter	-5945
▁regeringarna	-5946
▁centre	-5947
▁egypt	-5948
uvida	-5949
▁huruvida	-5950
▁sammanträ	-5951
▁compla	-5952
atiskt	-5953
▁starka	-5954
▁spanska	-5955
▁omfattas	-5956
▁signed	-5957
▁turkish	-5958
unn	-5959
andal	-5960
▁italian	-5961
▁premiärminister	-5962
▁votes	-5963
udicial	-5964
deles	-5965
▁includes	-5966
▁remark	-5967
▁instance	-5968
▁ingenting	-5969
▁förnuft	-5970
▁försäkra	-5971
▁membership	-5972
▁morning	-5973
▁slutsatser	-5974
▁bosn	-5975
▁tend	-5976
▁wonder	-5977
▁anyone	-5978
▁economies	-5979
▁kommentarer	-5980
cl	-5981
▁occup	-5982
▁uppfyller	-5983
▁utvecklings	-5984
ventions	-5985
▁kingdom	-5986
▁reinfor	-5987
omet	-5988
▁förhållanden	-5989
erous	-5990
▁tvekan	-5991
▁ökning	-5992
derna	-5993
▁munt	-5994
ercise	-5995
▁figures	-5996
itory	-5997
▁paket	-5998
vert	-5999
▁betänkanden	-6000
enska	-6001
rarna	-6002
▁resolve	-6003
taint	-6004
▁svara	-6005
▁coher	-6006
▁womens	-6007
▁däribland	-6008
▁tids	-6009
▁förklara	-6010
▁uppmärksamma	-6011
▁approval	-6012
▁cal	-6013
▁dagar	-6014
delning	-6015
▁od	-6016
▁tagits	-6017
▁prov	-6018
▁dat	-6019
▁families	-6020
▁regular	-6021
▁dialogen	-6022
tend	-6023
▁domin	-6024
▁lost	-6025
▁ämne	-6026
kret	-6027
▁gnum	-6028
▁affär	-6029
stöd	-6030
▁terrorismen	-6031
▁prison	-6032
▁gälla	-6033
▁came	-6034
ibilitet	-6035
näm	-6036
▁subsidiarity	-6037
ients	-6038
▁speakers	-6039
▁situations	-6040
▁related	-6041
hus	-6042
nars	-6043
▁advantage	-6044
▁substantial	-6045
fied	-6046
▁tibet	-6047
▁failed	-6048
▁federal	-6049
▁föreslås	-6050
▁godta	-6051
▁payments	-6052
▁please	-6053
▁impossible	-6054
bed	-6055
▁decent	-6056
▁människors	-6057
▁institutionella	-6058
▁dubb	-6059
▁sla	-6060
▁ought	-6061
▁preser	-6062
vaka	-6063
▁pill	-6064
▁banks	-6065
▁referendum	-6066
äst	-6067
fart	-6068
▁told	-6069
▁worked	-6070
▁mångfald	-6071
▁forth	-6072
▁elected	-6073
▁alldeles	-6074
▁territory	-6075
▁talks	-6076
▁öppet	-6077
▁income	-6078
▁news	-6079
▁infly	-6080
▁protecting	-6081
lagstift	-6082
▁konstitutionen	-6083
rogrammet	-6084
▁bringing	-6085
▁tempor	-6086
▁stra	-6087
▁totally	-6088
▁table	-6089
▁ansvariga	-6090
ots	-6091
▁avsluta	-6092
▁involvement	-6093
▁travel	-6094
▁sektorer	-6095
▁respektera	-6096
aktär	-6097
▁assem	-6098
▁desire	-6099
▁erkännande	-6100
östern	-6101
▁poland	-6102
iciently	-6103
▁införliv	-6104
▁maritime	-6105
▁motstånd	-6106
▁rele	-6107
▁knapp	-6108
▁idrott	-6109
▁främsta	-6110
▁opposed	-6111
▁kungariket	-6112
▁mellanöstern	-6113
▁oacceptabelt	-6114
▁definit	-6115
▁tillstånd	-6116
dagen	-6117
▁adopting	-6118
▁ko	-6119
▁ara	-6120
▁indire	-6121
sky	-6122
▁popul	-6123
▁linked	-6124
▁getting	-6125
▁aktivt	-6126
▁normer	-6127
uly	-6128
celon	-6129
kommit	-6130
▁ungdom	-6131
▁konflikt	-6132
▁ecb	-6133
stående	-6134
avi	-6135
▁wide	-6136
laf	-6137
▁energip	-6138
▁acts	-6139
▁infl	-6140
▁degree	-6141
ften	-6142
▁mobility	-6143
pected	-6144
▁kärnkraft	-6145
ean	-6146
▁truly	-6147
lever	-6148
uba	-6149
elling	-6150
▁intellig	-6151
▁barcelon	-6152
▁plenary	-6153
ående	-6154
▁register	-6155
▁utgöra	-6156
▁negativa	-6157
▁ursprungliga	-6158
kvent	-6159
▁konsekvenserna	-6160
▁supports	-6161
▁förespråk	-6162
ert	-6163
lad	-6164
▁goal	-6165
▁publ	-6166
▁secure	-6167
uli	-6168
wide	-6169
▁konsumenter	-6170
bas	-6171
▁foot	-6172
brott	-6173
▁forced	-6174
ror	-6175
▁talat	-6176
▁tillåta	-6177
▁skett	-6178
▁spel	-6179
nda	-6180
▁hört	-6181
ekonom	-6182
▁rates	-6183
▁kritik	-6184
ters	-6185
▁bit	-6186
faller	-6187
▁weapons	-6188
▁innehållet	-6189
▁demokratisk	-6190
▁repeat	-6191
▁hållet	-6192
ssystemet	-6193
▁vetenskapliga	-6194
ateful	-6195
▁election	-6196
▁actual	-6197
▁minorities	-6198
▁recognised	-6199
▁ordföranden	-6200
▁vikten	-6201
▁involving	-6202
stac	-6203
▁normal	-6204
ipp	-6205
▁nark	-6206
▁räcker	-6207
ival	-6208
▁consolid	-6209
▁centralb	-6210
▁irländska	-6211
▁obstac	-6212
▁prefer	-6213
ada	-6214
▁annars	-6215
▁radio	-6216
▁tillhandahålla	-6217
lling	-6218
▁credit	-6219
▁wishes	-6220
▁läkemedel	-6221
▁substances	-6222
▁förvär	-6223
▁structure	-6224
▁multilateral	-6225
▁oral	-6226
▁wall	-6227
▁händelser	-6228
▁konkurrensen	-6229
▁happening	-6230
▁månaderna	-6231
ications	-6232
ired	-6233
▁attitude	-6234
▁fördöm	-6235
▁immediate	-6236
▁intend	-6237
▁lar	-6238
▁begrepp	-6239
ransport	-6240
isch	-6241
▁lies	-6242
under	-6243
▁upphör	-6244
lden	-6245
ött	-6246
▁obligator	-6247
▁pollution	-6248
▁disease	-6249
▁konstatera	-6250
amål	-6251
avtal	-6252
▁alli	-6253
▁auditors	-6254
▁distribution	-6255
▁decisionmaking	-6256
▁factor	-6257
▁volunt	-6258
▁militär	-6259
▁recovery	-6260
läggningar	-6261
▁interesting	-6262
▁flag	-6263
▁claim	-6264
▁personligen	-6265
▁grateful	-6266
▁sammanträdet	-6267
▁bedömning	-6268
▁klo	-6269
ukvård	-6270
▁diversity	-6271
ligheterna	-6272
▁republiken	-6273
▁tvärtom	-6274
▁harmonisation	-6275
lem	-6276
speriod	-6277
▁controls	-6278
▁sammanhanget	-6279
▁delvis	-6280
nam	-6281
fe	-6282
▁ey	-6283
▁cypern	-6284
▁uttalanden	-6285
ktivt	-6286
▁lines	-6287
▁drugs	-6288
andens	-6289
eländer	-6290
▁revision	-6291
förklar	-6292
▁granted	-6293
▁inser	-6294
bin	-6295
fisk	-6296
▁starting	-6297
obb	-6298
acc	-6299
▁ready	-6300
spunkt	-6301
▁materi	-6302
▁minskning	-6303
hr	-6304
ström	-6305
▁vehicles	-6306
▁väd	-6307
▁ungdomar	-6308
▁rekommendation	-6309
▁internationellt	-6310
fl	-6311
avtalet	-6312
▁balt	-6313
▁undersökning	-6314
▁vidtas	-6315
▁gränserna	-6316
cul	-6317
▁tunis	-6318
▁afrik	-6319
▁evaluation	-6320
▁därigenom	-6321
▁perfect	-6322
▁rapporten	-6323
▁sport	-6324
▁tackle	-6325
▁cyprus	-6326
▁shared	-6327
▁appoint	-6328
set	-6329
▁arms	-6330
▁hårt	-6331
icians	-6332
▁antagandet	-6333
▁seeking	-6334
▁floor	-6335
▁greatest	-6336
▁class	-6337
▁personally	-6338
▁demokratiskt	-6339
gade	-6340
▁opinions	-6341
▁läget	-6342
verksamhet	-6343
▁vul	-6344
▁förkast	-6345
▁uppfyll	-6346
▁leva	-6347
▁europol	-6348
▁professional	-6349
▁myndighet	-6350
▁storbritannien	-6351
ivån	-6352
▁nos	-6353
▁african	-6354
▁subsidies	-6355
▁föreslagit	-6356
ohol	-6357
▁finansieringen	-6358
▁rekommender	-6359
▁ability	-6360
iner	-6361
▁sides	-6362
▁karaktär	-6363
▁minority	-6364
still	-6365
ifying	-6366
▁ses	-6367
▁followed	-6368
▁behålla	-6369
▁undertak	-6370
▁tran	-6371
▁competence	-6372
table	-6373
▁none	-6374
savtalet	-6375
▁handlingar	-6376
▁revis	-6377
▁bevara	-6378
ckande	-6379
▁runt	-6380
▁orätt	-6381
▁områdena	-6382
▁uppenbarligen	-6383
▁binding	-6384
▁continues	-6385
▁inrättandet	-6386
örerna	-6387
▁covered	-6388
▁dri	-6389
▁sil	-6390
arskap	-6391
tainty	-6392
rate	-6393
▁advoc	-6394
▁vir	-6395
▁strategiska	-6396
▁northern	-6397
▁kraven	-6398
▁välkomna	-6399
▁reag	-6400
▁millenn	-6401
▁överensst	-6402
▁häls	-6403
▁kn	-6404
▁inse	-6405
▁kompletter	-6406
ssland	-6407
▁occur	-6408
▁suffering	-6409
▁överväga	-6410
▁campaign	-6411
▁lower	-6412
▁improvements	-6413
▁rig	-6414
lausul	-6415
▁saken	-6416
▁förstör	-6417
▁immigrants	-6418
▁dags	-6419
▁upprepa	-6420
▁pensions	-6421
▁misstag	-6422
▁äld	-6423
▁polen	-6424
▁verkt	-6425
▁assembly	-6426
fare	-6427
▁rich	-6428
▁påverka	-6429
▁pel	-6430
▁slå	-6431
▁carefully	-6432
▁mur	-6433
ivity	-6434
▁meetings	-6435
▁upprätta	-6436
uropa	-6437
▁perspektiv	-6438
delsen	-6439
▁thereby	-6440
oul	-6441
▁conserv	-6442
bab	-6443
▁belopp	-6444
varar	-6445
▁barri	-6446
ommitt	-6447
▁bindande	-6448
▁regulatory	-6449
▁appar	-6450
▁etc	-6451
samt	-6452
cessive	-6453
▁villkoren	-6454
tter	-6455
▁föroren	-6456
▁changed	-6457
lies	-6458
rivs	-6459
▁condition	-6460
sprincipen	-6461
▁voice	-6462
▁spent	-6463
▁synpunkter	-6464
▁klag	-6465
imbab	-6466
▁numnumc	-6467
plain	-6468
▁euroområdet	-6469
▁bib	-6470
▁tycks	-6471
▁verkligheten	-6472
domstolen	-6473
ought	-6474
▁serve	-6475
▁employees	-6476
▁arab	-6477
▁debt	-6478
▁generally	-6479
arily	-6480
▁valut	-6481
▁amongst	-6482
▁författ	-6483
▁lagstiftnings	-6484
▁utöva	-6485
▁länd	-6486
▁historia	-6487
rant	-6488
▁övervaka	-6489
▁viktigare	-6490
skill	-6491
▁lagar	-6492
mekanism	-6493
▁proposing	-6494
▁fullständig	-6495
▁detailed	-6496
▁samför	-6497
▁range	-6498
▁consumption	-6499
ature	-6500
▁causes	-6501
▁talare	-6502
▁ickestatliga	-6503
▁lobb	-6504
imum	-6505
▁swedish	-6506
▁antagits	-6507
▁ansvarsfrihet	-6508
▁designed	-6509
sområde	-6510
▁vitryssland	-6511
▁cit	-6512
▁emphasis	-6513
▁behandla	-6514
ansch	-6515
▁trafik	-6516
▁uppdrag	-6517
orse	-6518
▁dict	-6519
ordbrukare	-6520
▁cancer	-6521
▁presence	-6522
▁dome	-6523
▁fran	-6524
verket	-6525
▁bekym	-6526
▁konsumentskydd	-6527
▁languages	-6528
▁harmonisering	-6529
enced	-6530
▁rädd	-6531
▁symp	-6532
amt	-6533
▁oly	-6534
▁religious	-6535
tion	-6536
▁berlin	-6537
gally	-6538
▁multin	-6539
▁reformen	-6540
▁sver	-6541
▁disapp	-6542
▁bristen	-6543
▁kontakt	-6544
ense	-6545
amine	-6546
▁ramp	-6547
▁inlägg	-6548
▁bott	-6549
▁planning	-6550
▁föregående	-6551
▁hnumnum	-6552
▁förbättringar	-6553
▁inbland	-6554
▁konsekvent	-6555
▁risker	-6556
▁noggrant	-6557
ably	-6558
möte	-6559
lunda	-6560
▁delight	-6561
▁förmåga	-6562
borger	-6563
▁consistent	-6564
kans	-6565
mid	-6566
▁interna	-6567
▁riskerar	-6568
▁series	-6569
▁effektivitet	-6570
▁dör	-6571
▁livet	-6572
▁organi	-6573
▁idag	-6574
▁medborger	-6575
▁check	-6576
▁alliance	-6577
▁criticism	-6578
▁structures	-6579
▁customs	-6580
▁reasonable	-6581
▁moving	-6582
äva	-6583
utveckling	-6584
▁bulgaria	-6585
ukdom	-6586
▁endorse	-6587
▁kol	-6588
▁entry	-6589
▁palestinska	-6590
▁kust	-6591
▁chans	-6592
▁drabbas	-6593
▁continent	-6594
▁hed	-6595
going	-6596
▁option	-6597
▁stake	-6598
▁limits	-6599
förfarandet	-6600
▁hävd	-6601
ging	-6602
▁grann	-6603
▁samförstånd	-6604
▁pie	-6605
ustified	-6606
▁courage	-6607
▁fortsatt	-6608
▁anpassa	-6609
▁framföra	-6610
▁roma	-6611
▁anges	-6612
▁regionerna	-6613
▁heads	-6614
▁toba	-6615
pacitet	-6616
▁anklag	-6617
▁politicians	-6618
▁domestic	-6619
▁garantier	-6620
▁elektron	-6621
nic	-6622
▁lay	-6623
▁brister	-6624
▁grupperna	-6625
▁finansiera	-6626
▁noga	-6627
ene	-6628
▁white	-6629
▁withdraw	-6630
aries	-6631
▁lämplig	-6632
luder	-6633
ush	-6634
▁drag	-6635
▁path	-6636
▁prosp	-6637
atur	-6638
▁entit	-6639
▁träff	-6640
vapen	-6641
▁delakt	-6642
▁perioden	-6643
▁credibility	-6644
▁collective	-6645
▁svag	-6646
▁beräk	-6647
▁visst	-6648
perts	-6649
▁fulfil	-6650
▁saknar	-6651
atell	-6652
▁återh	-6653
▁late	-6654
▁somew	-6655
▁lastly	-6656
standing	-6657
äkerheten	-6658
▁repeated	-6659
▁transe	-6660
▁vidtag	-6661
▁trading	-6662
▁upprikt	-6663
▁inspect	-6664
ivers	-6665
▁condemn	-6666
iseras	-6667
änts	-6668
▁lägre	-6669
▁meant	-6670
▁formal	-6671
▁utgångspunkt	-6672
mos	-6673
▁initial	-6674
▁liten	-6675
▁bse	-6676
▁thor	-6677
▁labelling	-6678
▁överty	-6679
uer	-6680
▁antingen	-6681
▁anställda	-6682
▁förmod	-6683
using	-6684
▁welfare	-6685
▁stadgan	-6686
▁utvärdering	-6687
▁pun	-6688
▁gick	-6689
organisationen	-6690
▁uppstå	-6691
▁strid	-6692
▁inflytande	-6693
▁lands	-6694
▁greek	-6695
▁speaker	-6696
▁kill	-6697
▁attacks	-6698
president	-6699
▁deltar	-6700
▁functioning	-6701
erity	-6702
▁sammanträde	-6703
▁ultimately	-6704
▁visser	-6705
strument	-6706
▁uppstår	-6707
▁inkluder	-6708
▁obligation	-6709
▁italienska	-6710
▁brut	-6711
▁ansök	-6712
▁investments	-6713
istisk	-6714
▁därefter	-6715
entially	-6716
▁rå	-6717
▁felakt	-6718
▁aver	-6719
urserna	-6720
▁risken	-6721
▁source	-6722
▁compliance	-6723
▁beträffar	-6724
▁klargöra	-6725
▁kompromis	-6726
▁visserligen	-6727
▁medborgerliga	-6728
gas	-6729
▁vacc	-6730
▁works	-6731
▁easier	-6732
atically	-6733
▁värden	-6734
▁tobacco	-6735
▁besluts	-6736
▁cle	-6737
▁konvent	-6738
▁ech	-6739
▁respektive	-6740
▁destro	-6741
▁centrum	-6742
▁kredit	-6743
▁encouraging	-6744
▁bol	-6745
▁människorna	-6746
▁factors	-6747
▁åters	-6748
▁garanterar	-6749
▁immun	-6750
öts	-6751
▁sluta	-6752
rän	-6753
▁hours	-6754
lems	-6755
▁principerna	-6756
▁conciliation	-6757
lats	-6758
ander	-6759
▁voluntary	-6760
ski	-6761
▁participate	-6762
pet	-6763
marknaden	-6764
▁definitivt	-6765
ya	-6766
▁sweden	-6767
▁liby	-6768
▁vuln	-6769
▁påtryckningar	-6770
▁behandlar	-6771
▁desto	-6772
▁någonsin	-6773
heter	-6774
▁föremål	-6775
hol	-6776
▁utöver	-6777
▁temporary	-6778
▁väntar	-6779
▁önskan	-6780
märk	-6781
blem	-6782
front	-6783
▁appears	-6784
▁invandrare	-6785
utslä	-6786
▁tobak	-6787
▁compensation	-6788
▁coast	-6789
▁forsknings	-6790
▁inclusion	-6791
ligg	-6792
▁started	-6793
rymme	-6794
▁parall	-6795
▁flyktingar	-6796
risen	-6797
▁dign	-6798
fattande	-6799
▁arrangements	-6800
licts	-6801
ronic	-6802
▁närmaste	-6803
▁återstår	-6804
▁informera	-6805
ägga	-6806
mission	-6807
ugoslav	-6808
▁politics	-6809
▁konflikter	-6810
oriteten	-6811
initi	-6812
oration	-6813
▁humanitära	-6814
▁scheme	-6815
iteter	-6816
▁fritt	-6817
grupper	-6818
▁samtal	-6819
▁yttersta	-6820
▁gröna	-6821
▁grounds	-6822
▁delighted	-6823
▁arbetsmarknad	-6824
▁belong	-6825
programmet	-6826
▁unless	-6827
uppgifter	-6828
▁förstärka	-6829
▁feed	-6830
▁känn	-6831
▁allra	-6832
▁heav	-6833
▁fron	-6834
▁gradu	-6835
▁stämmer	-6836
planen	-6837
▁lösningen	-6838
▁contributions	-6839
▁avläg	-6840
▁disappoint	-6841
▁gave	-6842
▁sudan	-6843
▁förekommer	-6844
driv	-6845
▁conflicts	-6846
poses	-6847
▁rättsstat	-6848
▁faktorer	-6849
▁skick	-6850
ask	-6851
onia	-6852
▁sanktioner	-6853
areness	-6854
▁besluta	-6855
▁registr	-6856
▁diskuteras	-6857
▁lic	-6858
▁vig	-6859
▁restrictions	-6860
▁utred	-6861
▁mich	-6862
▁ändamål	-6863
▁numerous	-6864
▁respekteras	-6865
rätts	-6866
sstraff	-6867
▁crimes	-6868
▁noneth	-6869
ografiska	-6870
▁facilitate	-6871
▁nonetheless	-6872
▁bn	-6873
▁pil	-6874
attle	-6875
finans	-6876
ärde	-6877
▁skyldighet	-6878
ocks	-6879
engers	-6880
rifter	-6881
▁respected	-6882
bestämm	-6883
▁företrä	-6884
▁intresser	-6885
▁förfogande	-6886
▁kem	-6887
sätta	-6888
▁confirm	-6889
▁imposed	-6890
principen	-6891
▁fonden	-6892
▁tillfällen	-6893
eed	-6894
▁lid	-6895
▁andel	-6896
▁religion	-6897
▁slä	-6898
▁pågår	-6899
egruppen	-6900
▁millions	-6901
▁negotiating	-6902
▁gransk	-6903
▁insist	-6904
▁awareness	-6905
atever	-6906
▁whatever	-6907
▁passengers	-6908
▁eventuella	-6909
▁prioritering	-6910
▁föredragandens	-6911
▁fighting	-6912
▁apart	-6913
▁ryska	-6914
▁decisive	-6915
▁spending	-6916
▁tillåter	-6917
ete	-6918
ses	-6919
yns	-6920
▁analyser	-6921
▁betraktas	-6922
▁vicepresident	-6923
▁urban	-6924
▁funn	-6925
▁helping	-6926
▁initiativet	-6927
▁construction	-6928
varo	-6929
▁tor	-6930
based	-6931
▁diseases	-6932
▁revolution	-6933
▁balkans	-6934
fly	-6935
▁parti	-6936
▁incent	-6937
▁strikt	-6938
▁operations	-6939
blick	-6940
▁chem	-6941
▁black	-6942
▁turism	-6943
▁globalisering	-6944
▁återvänd	-6945
▁disasters	-6946
▁äldre	-6947
entions	-6948
erring	-6949
▁proposes	-6950
etherlands	-6951
rot	-6952
▁säl	-6953
▁dikt	-6954
▁worse	-6955
▁forthcoming	-6956
▁uns	-6957
▁spar	-6958
▁praktiska	-6959
sprocess	-6960
▁funktion	-6961
ligh	-6962
▁kompens	-6963
▁guaranteed	-6964
▁supplement	-6965
rations	-6966
▁tvingas	-6967
▁folkhälsa	-6968
▁totala	-6969
▁speciellt	-6970
cke	-6971
friheten	-6972
▁sole	-6973
▁netherlands	-6974
▁tillräcklig	-6975
bygga	-6976
▁traditional	-6977
dp	-6978
pakten	-6979
▁verktyg	-6980
▁allowing	-6981
▁dödsstraff	-6982
▁kroat	-6983
▁medlen	-6984
ämlik	-6985
▁universal	-6986
astrich	-6987
▁kompet	-6988
▁vänta	-6989
ventionen	-6990
uting	-6991
uirement	-6992
▁ner	-6993
▁yttr	-6994
▁saving	-6995
▁marknader	-6996
▁individuals	-6997
▁ori	-6998
mary	-6999
▁maastrich	-7000
▁truth	-7001
▁technological	-7002
▁samty	-7003
partiet	-7004
▁flygpl	-7005
▁effekterna	-7006
▁kyoto	-7007
▁tillför	-7008
▁kvot	-7009
▁continued	-7010
bolag	-7011
▁scale	-7012
▁capable	-7013
▁century	-7014
fundet	-7015
factory	-7016
▁framhålla	-7017
▁sverige	-7018
ratic	-7019
▁olaf	-7020
▁byrån	-7021
▁payment	-7022
▁purposes	-7023
ague	-7024
iving	-7025
▁staternas	-7026
▁skyldigheter	-7027
repr	-7028
mt	-7029
▁välstånd	-7030
▁placed	-7031
kontroll	-7032
▁interested	-7033
▁fä	-7034
repren	-7035
imbabwe	-7036
gilt	-7037
åriga	-7038
▁impose	-7039
▁fal	-7040
▁uppnås	-7041
▁effektivare	-7042
▁energie	-7043
▁corruption	-7044
▁croat	-7045
▁skada	-7046
▁kvaliteten	-7047
▁statistics	-7048
▁kontinent	-7049
uir	-7050
oup	-7051
▁aktörer	-7052
▁behörighet	-7053
▁lokal	-7054
oral	-7055
▁lond	-7056
▁occasion	-7057
▁allvarlig	-7058
▁invån	-7059
▁människorätt	-7060
▁ledare	-7061
▁bulgarien	-7062
bo	-7063
wh	-7064
▁urs	-7065
▁arbetat	-7066
▁talmannen	-7067
▁effectiveness	-7068
▁erkänner	-7069
uls	-7070
amples	-7071
▁hence	-7072
▁godkännande	-7073
inst	-7074
▁ves	-7075
▁manage	-7076
iform	-7077
▁fordon	-7078
▁likely	-7079
arbetet	-7080
▁vän	-7081
▁reli	-7082
▁wider	-7083
agång	-7084
▁vecka	-7085
▁bestämt	-7086
▁antar	-7087
▁chemical	-7088
▁operators	-7089
▁maastricht	-7090
▁konventionen	-7091
▁starkare	-7092
▁solve	-7093
▁vari	-7094
▁består	-7095
▁berättig	-7096
▁advis	-7097
örd	-7098
▁saknas	-7099
ämfört	-7100
▁estim	-7101
▁livsmedels	-7102
enhagen	-7103
vand	-7104
▁suver	-7105
▁protected	-7106
▁dump	-7107
▁space	-7108
▁veckor	-7109
▁chairman	-7110
▁contrad	-7111
▁förbättras	-7112
▁vessel	-7113
lös	-7114
enham	-7115
▁kin	-7116
▁copenhagen	-7117
▁bär	-7118
▁svaret	-7119
uip	-7120
otika	-7121
▁indien	-7122
▁tasks	-7123
▁granska	-7124
▁electric	-7125
▁separate	-7126
▁stol	-7127
direktivet	-7128
▁energieffektiv	-7129
▁tem	-7130
▁kravet	-7131
erare	-7132
▁köpenham	-7133
▁antagit	-7134
▁högt	-7135
▁känsliga	-7136
▁hamnar	-7137
▁beredda	-7138
▁learn	-7139
▁förutsättningar	-7140
▁resolved	-7141
äld	-7142
oned	-7143
inese	-7144
▁upptä	-7145
▁rättsligt	-7146
lled	-7147
▁otillräck	-7148
▁sammans	-7149
▁thorough	-7150
▁letter	-7151
app	-7152
▁respekterar	-7153
ipul	-7154
▁fourth	-7155
▁defined	-7156
▁arbetslöshet	-7157
hat	-7158
▁hands	-7159
▁slutliga	-7160
▁portugues	-7161
▁frihandel	-7162
▁inl	-7163
▁tanken	-7164
▁förståelse	-7165
vård	-7166
etts	-7167
▁acp	-7168
▁överträ	-7169
▁india	-7170
▁insp	-7171
isterar	-7172
hö	-7173
▁attach	-7174
▁visade	-7175
▁pi	-7176
▁ersättning	-7177
icka	-7178
udg	-7179
▁penalty	-7180
▁chinese	-7181
▁bilaterala	-7182
ode	-7183
▁ali	-7184
▁medlemskap	-7185
cision	-7186
▁nederländerna	-7187
▁dels	-7188
▁defini	-7189
▁infring	-7190
▁appropriations	-7191
ivet	-7192
▁näring	-7193
▁sloven	-7194
▁inverkan	-7195
▁omfattning	-7196
äna	-7197
▁energikällor	-7198
▁anne	-7199
▁skälet	-7200
▁restruct	-7201
▁realise	-7202
styr	-7203
värde	-7204
▁demonstrated	-7205
▁bö	-7206
▁godtag	-7207
▁operate	-7208
▁demonstrate	-7209
rian	-7210
▁betydelsen	-7211
uing	-7212
▁portuguese	-7213
tade	-7214
änstemän	-7215
▁ansluta	-7216
▁autonom	-7217
▁betonar	-7218
ancing	-7219
▁höll	-7220
ansvar	-7221
▁förvis	-7222
▁skillnad	-7223
ah	-7224
embourg	-7225
▁imports	-7226
▁complic	-7227
▁återspeg	-7228
pay	-7229
atet	-7230
▁evening	-7231
▁funktionsh	-7232
ileg	-7233
rupt	-7234
▁vulnerable	-7235
▁slow	-7236
▁genere	-7237
▁remarks	-7238
iker	-7239
▁ihop	-7240
▁fack	-7241
▁officials	-7242
▁electronic	-7243
▁etn	-7244
rustning	-7245
▁definite	-7246
▁fisch	-7247
▁sidor	-7248
uts	-7249
▁dou	-7250
hib	-7251
farts	-7252
▁trib	-7253
▁london	-7254
▁regelb	-7255
▁imag	-7256
pers	-7257
▁avbr	-7258
▁sagts	-7259
▁entrepren	-7260
örelse	-7261
▁associated	-7262
nska	-7263
▁avsl	-7264
▁rand	-7265
▁warm	-7266
▁primar	-7267
▁average	-7268
▁svenska	-7269
▁försäkring	-7270
▁mötet	-7271
▁trygghet	-7272
amling	-7273
▁staten	-7274
▁barcelona	-7275
▁arbetslösheten	-7276
▁sammanfatt	-7277
skommitt	-7278
▁föreslog	-7279
▁erfarenheter	-7280
cri	-7281
▁flow	-7282
▁television	-7283
stag	-7284
ishing	-7285
mon	-7286
▁relative	-7287
▁respekten	-7288
▁förklaring	-7289
organisationer	-7290
▁base	-7291
hu	-7292
▁upprätthålla	-7293
▁dutch	-7294
▁knows	-7295
▁lagen	-7296
▁considering	-7297
▁känna	-7298
▁legitimate	-7299
dela	-7300
▁tecken	-7301
▁bon	-7302
▁revisionsrätten	-7303
▁beakta	-7304
adow	-7305
▁southern	-7306
▁spread	-7307
▁bidragit	-7308
▁peaceful	-7309
pped	-7310
▁occasions	-7311
▁primarily	-7312
▁korruption	-7313
▁allmänhetens	-7314
▁euinstitution	-7315
▁youth	-7316
▁väsent	-7317
▁tusentals	-7318
versi	-7319
▁ordning	-7320
vant	-7321
▁amounts	-7322
▁emergency	-7323
▁påstå	-7324
▁meaning	-7325
▁återhämt	-7326
▁contained	-7327
▁violations	-7328
strategi	-7329
▁aug	-7330
▁unfair	-7331
▁friend	-7332
▁tillträde	-7333
▁entitled	-7334
▁pred	-7335
▁senast	-7336
▁patients	-7337
omin	-7338
larna	-7339
▁behöv	-7340
▁tillräckliga	-7341
▁ethnic	-7342
▁framgår	-7343
▁assure	-7344
▁fastställs	-7345
▁subse	-7346
▁undrar	-7347
▁turkiska	-7348
ifications	-7349
▁eumedlems	-7350
▁difference	-7351
▁industries	-7352
▁host	-7353
▁försökt	-7354
▁strider	-7355
▁cars	-7356
▁flykting	-7357
▁au	-7358
▁onöd	-7359
▁klass	-7360
▁wit	-7361
▁förord	-7362
▁territorial	-7363
▁insurance	-7364
sut	-7365
▁undoubt	-7366
▁pas	-7367
emburg	-7368
▁cert	-7369
pan	-7370
▁got	-7371
▁skillnader	-7372
▁politiker	-7373
bord	-7374
▁manuel	-7375
▁förefaller	-7376
ktionen	-7377
▁win	-7378
vikt	-7379
▁konflikten	-7380
vinna	-7381
▁intressant	-7382
vien	-7383
▁beröm	-7384
öp	-7385
▁garanteras	-7386
gått	-7387
▁lia	-7388
▁reit	-7389
▁tried	-7390
▁overcome	-7391
▁codecision	-7392
▁satt	-7393
tended	-7394
ologisk	-7395
▁världshandel	-7396
▁roman	-7397
▁omstruktur	-7398
▁pan	-7399
▁involves	-7400
▁reglering	-7401
▁property	-7402
▁cooperate	-7403
gra	-7404
▁burma	-7405
▁parlamentariska	-7406
▁alde	-7407
▁fisc	-7408
seende	-7409
▁driva	-7410
cast	-7411
▁nämnt	-7412
▁enighet	-7413
▁concluded	-7414
▁bibe	-7415
▁passed	-7416
▁religi	-7417
▁gratulerar	-7418
▁rörligheten	-7419
▁noted	-7420
änkt	-7421
▁betydligt	-7422
▁numtalet	-7423
clusion	-7424
▁nig	-7425
▁inkomst	-7426
▁compared	-7427
▁operational	-7428
▁ståndpunkten	-7429
▁psy	-7430
▁farliga	-7431
▁dignity	-7432
nats	-7433
▁fiscal	-7434
▁plant	-7435
▁spl	-7436
▁kurd	-7437
inary	-7438
▁clean	-7439
▁clause	-7440
▁allocated	-7441
▁praktiskt	-7442
sekonom	-7443
▁portugis	-7444
▁privileg	-7445
klam	-7446
▁vitt	-7447
sibly	-7448
▁cs	-7449
▁händelse	-7450
▁bomb	-7451
▁aviation	-7452
▁ledamoten	-7453
ikal	-7454
gos	-7455
▁prep	-7456
▁bedöma	-7457
▁slutänd	-7458
försör	-7459
▁ideal	-7460
▁sträng	-7461
bek	-7462
▁friends	-7463
förslaget	-7464
▁granns	-7465
▁preventing	-7466
▁surely	-7467
▁transl	-7468
▁farming	-7469
▁planned	-7470
▁latter	-7471
▁uppmärksamm	-7472
▁tool	-7473
▁fuel	-7474
▁substance	-7475
året	-7476
▁played	-7477
▁sysselsättnings	-7478
econom	-7479
▁korea	-7480
▁baltic	-7481
▁dagordningen	-7482
▁treated	-7483
▁offers	-7484
▁kommers	-7485
▁obstacles	-7486
itetsprincipen	-7487
bit	-7488
▁school	-7489
▁approve	-7490
orn	-7491
▁lose	-7492
▁studies	-7493
▁sinc	-7494
▁förnybara	-7495
▁representation	-7496
▁geograph	-7497
▁kines	-7498
▁undoubtedly	-7499
▁förvaltningen	-7500
▁proc	-7501
▁hone	-7502
▁afford	-7503
▁february	-7504
ifierade	-7505
▁ppe	-7506
▁conum	-7507
▁implic	-7508
▁skapas	-7509
kul	-7510
▁firmly	-7511
▁absta	-7512
▁allians	-7513
▁representant	-7514
▁märkning	-7515
▁medbeslut	-7516
▁asht	-7517
▁sätter	-7518
▁tillhandahåll	-7519
▁break	-7520
utbildning	-7521
ölk	-7522
älla	-7523
▁februari	-7524
uested	-7525
▁refle	-7526
▁sem	-7527
▁lämnar	-7528
▁nått	-7529
▁worry	-7530
▁tacksam	-7531
nades	-7532
▁somewhat	-7533
atal	-7534
▁röster	-7535
▁accounts	-7536
omed	-7537
tension	-7538
▁trovärdighet	-7539
▁olagliga	-7540
▁allows	-7541
uels	-7542
regler	-7543
▁parterna	-7544
eland	-7545
görande	-7546
clusive	-7547
amb	-7548
▁långa	-7549
▁månad	-7550
▁virt	-7551
▁digital	-7552
visning	-7553
▁behavi	-7554
▁hous	-7555
allt	-7556
▁incident	-7557
▁bristande	-7558
▁abuse	-7559
▁marginal	-7560
▁proceedings	-7561
▁banan	-7562
▁grannskap	-7563
▁supervision	-7564
▁applying	-7565
▁beslutat	-7566
▁snabbare	-7567
▁happens	-7568
▁etabl	-7569
▁skattebetal	-7570
▁visit	-7571
▁planer	-7572
comm	-7573
▁envis	-7574
▁teknisk	-7575
ploitation	-7576
▁verklighet	-7577
icate	-7578
▁scen	-7579
strä	-7580
▁ongoing	-7581
▁uttryckligen	-7582
ifiera	-7583
▁lättare	-7584
▁pilot	-7585
▁stronger	-7586
▁fot	-7587
iding	-7588
▁planet	-7589
▁introducing	-7590
▁minskar	-7591
ödra	-7592
▁förvänta	-7593
▁learning	-7594
▁anv	-7595
▁card	-7596
▁august	-7597
▁nyckel	-7598
gu	-7599
▁motsvarar	-7600
▁behaviour	-7601
▁processes	-7602
▁skuld	-7603
care	-7604
▁öste	-7605
▁gain	-7606
▁nyss	-7607
ontal	-7608
sättningen	-7609
▁impression	-7610
känn	-7611
▁vat	-7612
iling	-7613
▁nämn	-7614
▁läggs	-7615
▁anförande	-7616
▁preparing	-7617
▁constantly	-7618
▁fattas	-7619
behandling	-7620
▁gro	-7621
▁prove	-7622
▁accomp	-7623
ality	-7624
▁depart	-7625
▁insats	-7626
▁ställs	-7627
▁fortsatta	-7628
▁frag	-7629
▁gone	-7630
▁ignor	-7631
▁uncer	-7632
▁marknaderna	-7633
boken	-7634
advant	-7635
ualified	-7636
▁keeping	-7637
nel	-7638
▁lösas	-7639
▁seven	-7640
vändning	-7641
▁avsevärt	-7642
▁konsumenternas	-7643
ches	-7644
uotas	-7645
▁places	-7646
▁prepare	-7647
▁inade	-7648
▁coordinated	-7649
▁brottslighet	-7650
▁details	-7651
▁highest	-7652
▁phenomen	-7653
▁phase	-7654
▁disadvant	-7655
anna	-7656
knik	-7657
▁fruit	-7658
▁prag	-7659
▁une	-7660
economic	-7661
▁produktions	-7662
▁spoken	-7663
▁austria	-7664
respond	-7665
▁decentral	-7666
ämma	-7667
▁err	-7668
institutional	-7669
unden	-7670
▁invester	-7671
▁amending	-7672
▁ratification	-7673
▁statute	-7674
▁rac	-7675
lights	-7676
bles	-7677
▁surpris	-7678
▁statliga	-7679
▁låter	-7680
▁operating	-7681
fallet	-7682
▁drawing	-7683
▁förebygga	-7684
orlunda	-7685
till	-7686
sätts	-7687
▁supervis	-7688
▁situationer	-7689
▁utvecklade	-7690
▁kristdemokrat	-7691
ordes	-7692
▁påsk	-7693
▁latest	-7694
▁announced	-7695
▁redog	-7696
▁tu	-7697
▁unge	-7698
▁relates	-7699
▁människo	-7700
▁beredd	-7701
▁appreciate	-7702
▁offren	-7703
▁barriers	-7704
▁kommunikation	-7705
oon	-7706
bert	-7707
▁facts	-7708
▁strategies	-7709
▁advert	-7710
▁atlant	-7711
▁types	-7712
▁illust	-7713
▁kategor	-7714
▁lan	-7715
▁spoke	-7716
▁surve	-7717
▁utrymme	-7718
▁pågående	-7719
▁witness	-7720
pectations	-7721
▁kallas	-7722
▁tekniskt	-7723
sförfarandet	-7724
▁rörande	-7725
▁island	-7726
▁stocks	-7727
▁prosperity	-7728
▁grekiska	-7729
▁kontrollen	-7730
isen	-7731
▁lära	-7732
▁hindra	-7733
gga	-7734
skyld	-7735
▁varmt	-7736
▁urgently	-7737
▁fishermen	-7738
▁phil	-7739
▁biod	-7740
▁överläm	-7741
▁södra	-7742
▁fattigdomen	-7743
▁rational	-7744
▁enhälligt	-7745
ford	-7746
▁reprodu	-7747
chang	-7748
▁möta	-7749
▁revid	-7750
▁resist	-7751
ordbrukarna	-7752
▁camp	-7753
sten	-7754
▁sustaina	-7755
llar	-7756
▁emb	-7757
▁dispos	-7758
▁maintaining	-7759
änsle	-7760
▁förläng	-7761
▁menings	-7762
▁företagens	-7763
▁hållning	-7764
▁prelimin	-7765
edda	-7766
▁interven	-7767
▁arbetstagarna	-7768
▁programmen	-7769
traordin	-7770
▁äger	-7771
bu	-7772
▁aband	-7773
▁bound	-7774
▁ppede	-7775
uipment	-7776
▁duties	-7777
▁motsätter	-7778
uable	-7779
▁socio	-7780
▁ngos	-7781
▁strengthened	-7782
srätt	-7783
▁pillar	-7784
▁förmodligen	-7785
▁framgångsrikt	-7786
▁rikta	-7787
▁historiska	-7788
kval	-7789
aketet	-7790
▁minist	-7791
▁österrike	-7792
▁vel	-7793
plikt	-7794
▁ashton	-7795
▁ömsesidigt	-7796
▁kör	-7797
▁fullo	-7798
änste	-7799
▁sann	-7800
▁resa	-7801
▁rapporter	-7802
▁pure	-7803
▁shadow	-7804
▁largest	-7805
▁disag	-7806
▁beings	-7807
ingu	-7808
rates	-7809
▁ungefär	-7810
slagstift	-7811
sprodukter	-7812
smål	-7813
▁accidents	-7814
▁kap	-7815
▁skriv	-7816
▁territorium	-7817
▁hållas	-7818
▁förlust	-7819
▁agerande	-7820
▁alg	-7821
▁strukt	-7822
▁acknowled	-7823
▁domstolen	-7824
▁ökande	-7825
▁politically	-7826
▁transporter	-7827
▁uniform	-7828
▁snabba	-7829
liggande	-7830
atts	-7831
▁ersätta	-7832
▁produktionen	-7833
▁aids	-7834
▁ändras	-7835
▁societ	-7836
▁welcomed	-7837
istiskt	-7838
produkter	-7839
▁regelverk	-7840
▁märk	-7841
▁prohib	-7842
▁attract	-7843
▁skatter	-7844
▁konsum	-7845
▁rättighet	-7846
clud	-7847
icip	-7848
gifts	-7849
▁afrikanska	-7850
▁mån	-7851
▁distin	-7852
▁described	-7853
omål	-7854
▁core	-7855
▁mängd	-7856
▁rädda	-7857
▁sensible	-7858
▁regeringsch	-7859
rop	-7860
▁eib	-7861
▁asia	-7862
▁leadership	-7863
vergence	-7864
▁prest	-7865
▁debating	-7866
▁förli	-7867
▁intends	-7868
▁malta	-7869
▁presidents	-7870
off	-7871
▁tillägga	-7872
riper	-7873
▁pursue	-7874
▁innovative	-7875
▁drabbats	-7876
▁confirmed	-7877
ifik	-7878
▁insk	-7879
▁contracts	-7880
stabil	-7881
▁finding	-7882
▁electricity	-7883
▁tou	-7884
▁merc	-7885
▁accompan	-7886
▁återuppbygg	-7887
▁påskynd	-7888
▁tillägg	-7889
▁materials	-7890
▁parlamenten	-7891
▁lyssna	-7892
▁försen	-7893
▁minoriteter	-7894
▁bäst	-7895
▁manufactur	-7896
bs	-7897
▁fy	-7898
ley	-7899
▁transit	-7900
▁huvudsakligen	-7901
ape	-7902
▁sovereignty	-7903
▁kompetens	-7904
▁hav	-7905
upt	-7906
aterade	-7907
▁arguments	-7908
▁handla	-7909
▁answers	-7910
▁significantly	-7911
uent	-7912
föred	-7913
▁ukrain	-7914
▁fördragen	-7915
väm	-7916
▁flood	-7917
bre	-7918
▁team	-7919
engl	-7920
▁clarify	-7921
▁upprepar	-7922
ofin	-7923
▁ävent	-7924
▁inflation	-7925
änns	-7926
asing	-7927
▁pengarna	-7928
▁nätverk	-7929
▁skär	-7930
▁eight	-7931
▁vanliga	-7932
föredrag	-7933
vägagång	-7934
▁numth	-7935
▁guengl	-7936
▁syns	-7937
▁colomb	-7938
▁nivåer	-7939
▁ståndpunkter	-7940
▁tillvägagång	-7941
arm	-7942
▁kept	-7943
▁undanrö	-7944
▁determined	-7945
roc	-7946
▁postp	-7947
▁stäng	-7948
språk	-7949
strid	-7950
banon	-7951
▁galile	-7952
förändringarna	-7953
▁neighbourhood	-7954
hne	-7955
itut	-7956
▁distort	-7957
▁skapandet	-7958
▁emu	-7959
▁godkänn	-7960
▁tilldel	-7961
▁published	-7962
▁timet	-7963
▁fields	-7964
ground	-7965
▁realistic	-7966
▁forg	-7967
▁follows	-7968
▁narkotika	-7969
▁avreglering	-7970
▁detsamma	-7971
▁milk	-7972
▁ägna	-7973
▁huvudsakliga	-7974
ängande	-7975
▁skyldiga	-7976
osen	-7977
icks	-7978
▁förblir	-7979
▁bnp	-7980
rated	-7981
▁beaktas	-7982
▁legally	-7983
▁avseendet	-7984
▁annorlunda	-7985
▁largely	-7986
▁represented	-7987
systemet	-7988
handlingar	-7989
▁underskott	-7990
▁urgen	-7991
▁ramprogrammet	-7992
ched	-7993
▁diskussionerna	-7994
▁bush	-7995
▁såg	-7996
▁satell	-7997
▁genomsn	-7998
▁obe	-7999
▁komple	-8000
▁partier	-8001
▁sustainability	-8002
igande	-8003
rädande	-8004
▁brings	-8005
▁medical	-8006
skär	-8007
▁drar	-8008
▁henne	-8009
▁historic	-8010
▁ock	-8011
year	-8012
▁believes	-8013
enty	-8014
▁avvis	-8015
▁valt	-8016
▁fulla	-8017
▁besvara	-8018
▁hungarian	-8019
▁felt	-8020
▁kvalific	-8021
lades	-8022
▁titta	-8023
sfrågor	-8024
slös	-8025
▁utbyte	-8026
▁stoppa	-8027
eteck	-8028
▁fine	-8029
bes	-8030
son	-8031
▁destroy	-8032
▁mol	-8033
▁makten	-8034
▁cod	-8035
▁wealth	-8036
▁avskaffa	-8037
▁slutändan	-8038
▁correspond	-8039
▁organisationen	-8040
sprogrammet	-8041
▁eventuellt	-8042
aten	-8043
▁muntliga	-8044
urt	-8045
▁changing	-8046
uests	-8047
▁frig	-8048
▁förlikning	-8049
▁hård	-8050
isterna	-8051
▁prosec	-8052
▁dependent	-8053
▁personliga	-8054
▁efterfrågan	-8055
adem	-8056
orry	-8057
▁identity	-8058
▁socialists	-8059
▁countrys	-8060
▁lyckades	-8061
▁strategier	-8062
▁tillgången	-8063
▁briefly	-8064
älper	-8065
▁förbund	-8066
▁offered	-8067
▁ak	-8068
utral	-8069
▁breach	-8070
▁neighbours	-8071
vo	-8072
▁kampan	-8073
▁perfectly	-8074
▁discip	-8075
▁preced	-8076
vink	-8077
▁waiting	-8078
▁medlemsländerna	-8079
ops	-8080
▁leader	-8081
barhet	-8082
anke	-8083
▁coup	-8084
▁vessels	-8085
▁restructuring	-8086
rog	-8087
▁vård	-8088
▁submit	-8089
▁monetära	-8090
▁tillkänn	-8091
▁dåligt	-8092
änsterna	-8093
politiska	-8094
▁grundas	-8095
ties	-8096
▁ende	-8097
▁wait	-8098
ågor	-8099
▁anda	-8100
region	-8101
▁israeli	-8102
▁utbildnings	-8103
▁gover	-8104
▁absence	-8105
▁spår	-8106
▁läggas	-8107
▁undertaken	-8108
▁waters	-8109
▁highlighted	-8110
▁faller	-8111
förändringar	-8112
▁sold	-8113
oking	-8114
▁ledde	-8115
▁bok	-8116
▁strävan	-8117
▁urgency	-8118
▁parlaments	-8119
relsen	-8120
▁someone	-8121
▁besluten	-8122
▁supposed	-8123
▁careful	-8124
▁simplify	-8125
▁mac	-8126
▁klagomål	-8127
▁mera	-8128
▁uppnått	-8129
▁beskatt	-8130
▁besök	-8131
▁teach	-8132
▁fronte	-8133
finansi	-8134
▁choose	-8135
sledamöterna	-8136
▁driving	-8137
kel	-8138
pre	-8139
sbe	-8140
▁mag	-8141
▁påpekade	-8142
▁krafter	-8143
▁uppe	-8144
▁verts	-8145
▁coherent	-8146
▁bull	-8147
▁stadga	-8148
▁kontra	-8149
ng	-8150
▁advance	-8151
utin	-8152
sförhåll	-8153
▁mångfalden	-8154
▁bio	-8155
▁drift	-8156
▁users	-8157
▁holding	-8158
▁resulting	-8159
▁föräld	-8160
▁disposal	-8161
▁förbereda	-8162
föranden	-8163
▁difficulty	-8164
empts	-8165
▁stable	-8166
uar	-8167
▁dail	-8168
▁roth	-8169
metoder	-8170
▁traditionella	-8171
▁verhe	-8172
sked	-8173
▁croatia	-8174
▁låga	-8175
▁totalt	-8176
▁convergence	-8177
▁försäm	-8178
▁proved	-8179
▁referring	-8180
▁daily	-8181
▁tillsyns	-8182
gift	-8183
skra	-8184
▁gdp	-8185
▁reda	-8186
ulsory	-8187
▁kriget	-8188
▁seeing	-8189
▁enforcement	-8190
▁landsbygdens	-8191
▁ansåg	-8192
▁medicines	-8193
▁define	-8194
▁indones	-8195
▁surv	-8196
program	-8197
▁inslag	-8198
▁relevanta	-8199
▁förklaringar	-8200
oden	-8201
ättning	-8202
▁amended	-8203
▁bestånd	-8204
▁genomförts	-8205
▁investigation	-8206
▁hun	-8207
▁ambitiösa	-8208
▁kött	-8209
▁funnits	-8210
▁plac	-8211
▁constitu	-8212
▁samhällen	-8213
▁människohandel	-8214
iop	-8215
▁worldwide	-8216
▁acknowledge	-8217
snivå	-8218
▁härmed	-8219
▁understood	-8220
▁significance	-8221
ftt	-8222
▁skador	-8223
▁spring	-8224
usal	-8225
▁swift	-8226
tensive	-8227
▁deficit	-8228
▁georgia	-8229
▁push	-8230
▁koncentrera	-8231
appe	-8232
▁lug	-8233
ungna	-8234
ections	-8235
▁årliga	-8236
▁neighbouring	-8237
▁ungern	-8238
▁medbeslutande	-8239
▁budgetutskottet	-8240
ua	-8241
▁conv	-8242
▁genetiskt	-8243
▁integrationen	-8244
igar	-8245
ärtat	-8246
▁courts	-8247
▁negotiation	-8248
ensen	-8249
▁sägs	-8250
▁portugisiska	-8251
▁schul	-8252
▁förplikt	-8253
▁åld	-8254
▁boost	-8255
▁valen	-8256
▁playing	-8257
▁orsa	-8258
▁unil	-8259
idutslä	-8260
▁målsättning	-8261
▁genomsnitt	-8262
▁plants	-8263
▁rådgiv	-8264
▁hyp	-8265
▁priser	-8266
▁primary	-8267
▁slutsatserna	-8268
▁förstås	-8269
▁ifrågasätt	-8270
rev	-8271
▁drug	-8272
▁alltmer	-8273
che	-8274
ctive	-8275
ursday	-8276
▁divid	-8277
ison	-8278
erska	-8279
▁thursday	-8280
pand	-8281
ampan	-8282
▁worlds	-8283
▁investera	-8284
▁arbetskraft	-8285
eder	-8286
processen	-8287
▁eld	-8288
▁tvungna	-8289
äget	-8290
▁lån	-8291
▁bemö	-8292
erably	-8293
▁vända	-8294
▁nämnts	-8295
▁valuable	-8296
▁considers	-8297
▁determination	-8298
▁utrikespolitik	-8299
▁valid	-8300
▁attempts	-8301
▁genuinely	-8302
▁wine	-8303
▁ledande	-8304
commun	-8305
▁ämnet	-8306
▁likhet	-8307
▁gränsen	-8308
▁utsläppen	-8309
▁arriv	-8310
▁fif	-8311
▁tors	-8312
▁suverän	-8313
cas	-8314
▁gap	-8315
▁unne	-8316
ids	-8317
▁honour	-8318
▁standarder	-8319
▁endeav	-8320
▁latinam	-8321
▁skyddas	-8322
▁meat	-8323
▁numnumee	-8324
▁lobby	-8325
▁utöka	-8326
▁contra	-8327
▁unnecess	-8328
▁offentligt	-8329
▁ound	-8330
▁chann	-8331
alen	-8332
▁chap	-8333
öskydd	-8334
▁abort	-8335
▁recall	-8336
▁satisfactory	-8337
ime	-8338
rika	-8339
atible	-8340
iserar	-8341
▁leads	-8342
▁möten	-8343
▁upply	-8344
▁severe	-8345
▁betraktar	-8346
▁regeringens	-8347
▁eumedborgare	-8348
emål	-8349
▁kapit	-8350
▁numbers	-8351
handlingarna	-8352
▁stre	-8353
dor	-8354
rive	-8355
▁fer	-8356
▁utkast	-8357
tes	-8358
▁dar	-8359
atorer	-8360
▁interim	-8361
▁tydligare	-8362
▁serbia	-8363
▁betalar	-8364
▁upprepade	-8365
▁preparation	-8366
cs	-8367
▁invänd	-8368
ovina	-8369
▁built	-8370
▁framställningar	-8371
▁coal	-8372
▁försäl	-8373
▁begära	-8374
▁utföra	-8375
▁arbetsgiv	-8376
▁åtskill	-8377
cale	-8378
▁strugg	-8379
▁reaction	-8380
ado	-8381
▁föredragandena	-8382
▁dism	-8383
ligger	-8384
▁associering	-8385
▁becomes	-8386
▁stockhol	-8387
▁kvinnorna	-8388
▁release	-8389
ectual	-8390
▁förenkla	-8391
▁uppskattar	-8392
slå	-8393
▁folkets	-8394
▁kil	-8395
enger	-8396
house	-8397
ärer	-8398
▁fing	-8399
▁ports	-8400
▁previously	-8401
▁room	-8402
▁prisoners	-8403
▁slight	-8404
ppa	-8405
▁avlägs	-8406
▁hundrat	-8407
▁potenti	-8408
▁reconstruction	-8409
rör	-8410
▁disappe	-8411
▁snarast	-8412
▁valutafrågor	-8413
eriet	-8414
▁motiv	-8415
▁listen	-8416
▁förteck	-8417
▁deliber	-8418
▁figure	-8419
▁turning	-8420
▁centres	-8421
▁förvisso	-8422
prise	-8423
▁rådande	-8424
▁marknads	-8425
▁saw	-8426
brik	-8427
▁verka	-8428
▁radical	-8429
▁constitute	-8430
mod	-8431
nandet	-8432
▁utvidga	-8433
▁sammanträdes	-8434
asil	-8435
uris	-8436
▁sets	-8437
like	-8438
vrid	-8439
▁flytt	-8440
▁utfärd	-8441
▁partly	-8442
▁hamn	-8443
iserad	-8444
▁förhandla	-8445
▁actively	-8446
▁transitional	-8447
urell	-8448
▁georgien	-8449
▁försiktighet	-8450
▁patten	-8451
▁governing	-8452
▁accident	-8453
ather	-8454
▁biote	-8455
▁speeches	-8456
aled	-8457
▁cur	-8458
anser	-8459
▁ovan	-8460
▁nämns	-8461
▁transatlantic	-8462
ostnad	-8463
liggöra	-8464
▁serbien	-8465
▁elsewhere	-8466
▁suggested	-8467
▁destruction	-8468
▁embar	-8469
▁kroatien	-8470
ugen	-8471
▁besö	-8472
▁hamas	-8473
▁honest	-8474
▁massive	-8475
▁synsätt	-8476
▁konferens	-8477
▁interpretation	-8478
▁enkel	-8479
▁fisker	-8480
▁rättvist	-8481
▁återhämtning	-8482
▁omvand	-8483
▁possibly	-8484
syn	-8485
▁assume	-8486
ola	-8487
▁lön	-8488
▁passenger	-8489
perter	-8490
▁inkom	-8491
▁topic	-8492
▁murder	-8493
▁solana	-8494
payers	-8495
▁collab	-8496
▁hungary	-8497
▁skriftliga	-8498
▁launched	-8499
▁compulsory	-8500
▁granskning	-8501
▁kapacitet	-8502
▁verheugen	-8503
▁schemes	-8504
▁turkiets	-8505
▁tillämpar	-8506
▁ordentligt	-8507
▁lt	-8508
vatten	-8509
▁reaktion	-8510
▁begreppet	-8511
▁utl	-8512
orest	-8513
▁martin	-8514
▁indicated	-8515
▁obliged	-8516
▁complement	-8517
▁utnäm	-8518
nedvrid	-8519
▁petitions	-8520
▁double	-8521
▁maintained	-8522
▁högst	-8523
▁plural	-8524
▁beslutade	-8525
▁togs	-8526
▁företräder	-8527
result	-8528
▁consci	-8529
▁olaglig	-8530
▁globaliseringen	-8531
▁doha	-8532
▁präg	-8533
▁sufficiently	-8534
frist	-8535
▁typer	-8536
▁running	-8537
▁transn	-8538
▁links	-8539
▁guaranteeing	-8540
▁doub	-8541
▁hundreds	-8542
ffe	-8543
rets	-8544
▁fys	-8545
▁kalla	-8546
▁fisket	-8547
▁händelserna	-8548
ifiering	-8549
▁yugoslav	-8550
active	-8551
▁direkta	-8552
▁definitely	-8553
▁city	-8554
▁datum	-8555
▁fanta	-8556
▁nationernas	-8557
▁vänner	-8558
▁identify	-8559
▁identified	-8560
▁stands	-8561
▁satisfied	-8562
▁döm	-8563
▁audio	-8564
▁ockup	-8565
▁resolutioner	-8566
▁sända	-8567
▁trend	-8568
▁affects	-8569
ogen	-8570
▁synvink	-8571
▁motsvarande	-8572
▁bransch	-8573
amination	-8574
▁suffered	-8575
▁thanking	-8576
▁långsiktiga	-8577
▁intellectual	-8578
▁sugar	-8579
▁species	-8580
▁undergr	-8581
▁essentially	-8582
kall	-8583
änslen	-8584
▁polish	-8585
▁concentrate	-8586
▁förespråkar	-8587
▁tidigt	-8588
▁greatly	-8589
▁opposite	-8590
▁proof	-8591
▁seeks	-8592
osystem	-8593
▁kristdemokrater	-8594
ssystemen	-8595
▁påpekat	-8596
▁societies	-8597
▁earth	-8598
▁mervärde	-8599
▁dos	-8600
▁whereas	-8601
boll	-8602
stein	-8603
▁ligga	-8604
▁uppmanas	-8605
▁facilities	-8606
▁lith	-8607
▁remove	-8608
former	-8609
rycket	-8610
▁vidtar	-8611
faranden	-8612
▁näringsl	-8613
▁förverklig	-8614
▁läge	-8615
▁titt	-8616
ässigt	-8617
▁issued	-8618
▁deserves	-8619
▁kraftfullt	-8620
änsten	-8621
▁schools	-8622
atisk	-8623
▁addressing	-8624
▁possibilities	-8625
pass	-8626
▁tragic	-8627
▁options	-8628
▁audiovis	-8629
▁disappear	-8630
edon	-8631
▁splitt	-8632
▁konsumenten	-8633
fte	-8634
▁ursäkt	-8635
institut	-8636
▁oroande	-8637
▁lithu	-8638
▁carbon	-8639
fors	-8640
▁stay	-8641
▁skugg	-8642
▁tools	-8643
▁amerikan	-8644
iden	-8645
▁spite	-8646
▁chosen	-8647
▁sannol	-8648
▁advertising	-8649
itage	-8650
▁resurserna	-8651
▁talaren	-8652
▁företags	-8653
▁sår	-8654
▁mcc	-8655
upa	-8656
iell	-8657
▁uppsk	-8658
▁echo	-8659
iserat	-8660
▁background	-8661
▁byrå	-8662
▁cities	-8663
▁mont	-8664
▁litau	-8665
▁överdriv	-8666
▁fattigaste	-8667
▁verksamheten	-8668
▁dubl	-8669
▁fakta	-8670
▁debated	-8671
▁iak	-8672
erative	-8673
▁carrying	-8674
uren	-8675
geten	-8676
▁indik	-8677
▁harmful	-8678
▁heritage	-8679
▁complicated	-8680
▁save	-8681
▁åtta	-8682
▁reven	-8683
▁undvik	-8684
▁nationals	-8685
▁reklam	-8686
▁ok	-8687
initiativ	-8688
▁conducted	-8689
bedöm	-8690
delningen	-8691
rättsliga	-8692
▁kraftigt	-8693
▁inriktning	-8694
▁poorest	-8695
▁profits	-8696
▁finansieras	-8697
ko	-8698
▁blod	-8699
▁agerar	-8700
▁lämnat	-8701
▁resten	-8702
▁manufacturers	-8703
▁bang	-8704
▁accoun	-8705
▁hearing	-8706
▁himself	-8707
▁makedon	-8708
▁completed	-8709
▁healthcare	-8710
▁sitter	-8711
▁skills	-8712
▁neutral	-8713
iro	-8714
▁reagera	-8715
▁förhoppningsvis	-8716
▁nobody	-8717
▁charges	-8718
▁förhind	-8719
▁samordna	-8720
▁österrik	-8721
▁erin	-8722
▁sorry	-8723
▁platser	-8724
▁austrian	-8725
▁enas	-8726
staterna	-8727
▁kärnvapen	-8728
▁wt	-8729
▁purch	-8730
▁påbör	-8731
tending	-8732
▁islands	-8733
▁dela	-8734
▁hänt	-8735
▁hänvisar	-8736
▁relativt	-8737
▁nederländska	-8738
▁heading	-8739
▁heavy	-8740
▁belief	-8741
▁siffror	-8742
▁undersökningar	-8743
▁döds	-8744
▁ting	-8745
▁pleas	-8746
▁liberala	-8747
▁vinst	-8748
▁aktiva	-8749
▁ungerska	-8750
▁competent	-8751
hålls	-8752
▁bely	-8753
▁presentation	-8754
oni	-8755
pping	-8756
kommitt	-8757
...	-8758
ämlikhet	-8759
▁ment	-8760
▁aftern	-8761
▁bestämma	-8762
lined	-8763
▁kombin	-8764
▁västra	-8765
▁ekonomier	-8766
lying	-8767
▁gällde	-8768
mas	-8769
abling	-8770
▁sanningen	-8771
▁begränsade	-8772
▁perfor	-8773
förändringen	-8774
▁mått	-8775
▁whereby	-8776
▁konventet	-8777
aff	-8778
▁section	-8779
▁went	-8780
▁helped	-8781
▁worrying	-8782
yer	-8783
oven	-8784
▁samarbets	-8785
pens	-8786
▁alc	-8787
▁cheap	-8788
▁noterar	-8789
▁openness	-8790
▁intentions	-8791
build	-8792
▁drabbade	-8793
▁gross	-8794
▁slutför	-8795
▁ratified	-8796
▁prioritet	-8797
▁successfully	-8798
▁förväntningar	-8799
ustering	-8800
▁timetable	-8801
▁officiella	-8802
▁uppriktigt	-8803
▁grupps	-8804
▁ingripa	-8805
▁airlines	-8806
▁nöt	-8807
▁handlingsplanen	-8808
▁healthy	-8809
▁arbetstagarnas	-8810
▁mik	-8811
▁fackför	-8812
▁tragedy	-8813
▁increases	-8814
▁prospects	-8815
▁statistik	-8816
iced	-8817
▁worst	-8818
▁speciella	-8819
▁diplomatic	-8820
sbud	-8821
▁innefatt	-8822
▁bolag	-8823
▁finner	-8824
▁befogenhet	-8825
▁implications	-8826
holders	-8827
världen	-8828
▁kinesiska	-8829
marna	-8830
▁föruts	-8831
▁rika	-8832
▁begränsningar	-8833
▁swit	-8834
▁secretary	-8835
etnam	-8836
▁skede	-8837
▁accordingly	-8838
▁farh	-8839
atures	-8840
stater	-8841
▁minut	-8842
▁anmärk	-8843
▁length	-8844
▁bearing	-8845
områdena	-8846
▁penning	-8847
▁inev	-8848
▁avstå	-8849
▁communications	-8850
▁recip	-8851
▁kön	-8852
kable	-8853
▁sund	-8854
▁orsakerna	-8855
▁skicka	-8856
▁conventions	-8857
kort	-8858
▁berg	-8859
industri	-8860
uridiska	-8861
▁armen	-8862
▁deals	-8863
ssamhäll	-8864
▁mistake	-8865
▁inbegrip	-8866
free	-8867
▁säll	-8868
▁avveck	-8869
▁intol	-8870
▁avgifter	-8871
plicit	-8872
▁konserv	-8873
ova	-8874
▁lie	-8875
sekret	-8876
▁morator	-8877
▁director	-8878
▁reliable	-8879
måga	-8880
egång	-8881
▁brok	-8882
dat	-8883
▁olymp	-8884
ategory	-8885
▁budgetkontroll	-8886
▁mekanismer	-8887
▁forskningen	-8888
▁centralbanken	-8889
▁threats	-8890
▁demanding	-8891
▁civilisation	-8892
▁environmentally	-8893
▁eftersträ	-8894
ich	-8895
▁los	-8896
▁phys	-8897
▁ships	-8898
▁confront	-8899
▁söka	-8900
▁phenomenon	-8901
▁konferensen	-8902
ald	-8903
irable	-8904
▁ställt	-8905
▁percent	-8906
▁landsbygden	-8907
▁knappast	-8908
▁rik	-8909
▁veter	-8910
▁players	-8911
▁imperial	-8912
▁hol	-8913
▁utforma	-8914
▁dy	-8915
▁efterly	-8916
▁simplif	-8917
▁hävdar	-8918
▁ärende	-8919
▁arbetspl	-8920
▁känneteck	-8921
▁partsession	-8922
▁usd	-8923
illing	-8924
▁acting	-8925
▁alk	-8926
▁easily	-8927
▁belgium	-8928
ekonomiska	-8929
▁utgifterna	-8930
▁category	-8931
▁ingående	-8932
grammen	-8933
▁storle	-8934
▁snedvrid	-8935
▁ppedegruppen	-8936
▁nic	-8937
▁faktiska	-8938
▁profit	-8939
▁solely	-8940
▁angrepp	-8941
▁medföra	-8942
▁savings	-8943
▁brett	-8944
▁marock	-8945
umb	-8946
ränk	-8947
katastro	-8948
▁belgian	-8949
▁stränga	-8950
▁förlora	-8951
▁beskriv	-8952
▁railway	-8953
▁cf	-8954
▁minsta	-8955
planation	-8956
sbanken	-8957
▁vietnam	-8958
▁granting	-8959
▁correctly	-8960
▁egdomstolen	-8961
energ	-8962
encing	-8963
nare	-8964
▁säk	-8965
▁purely	-8966
▁religiösa	-8967
▁beklagligt	-8968
▁cau	-8969
▁upd	-8970
▁mord	-8971
▁bureaucracy	-8972
ormer	-8973
▁begå	-8974
▁värdighet	-8975
liggör	-8976
▁imagine	-8977
▁närvaro	-8978
▁geographical	-8979
▁fortsättningen	-8980
▁fungerande	-8981
dire	-8982
▁fift	-8983
▁fundera	-8984
▁galileo	-8985
▁havs	-8986
sstöd	-8987
▁crises	-8988
▁foremost	-8989
▁euros	-8990
▁havet	-8991
▁lades	-8992
▁monten	-8993
▁advice	-8994
åld	-8995
▁transf	-8996
▁kostnad	-8997
▁fischler	-8998
▁kränkningar	-8999
▁lider	-9000
irektivet	-9001
▁skillnaderna	-9002
▁opened	-9003
▁depends	-9004
▁emphasised	-9005
▁considerations	-9006
arens	-9007
▁energipolitik	-9008
▁eumedborgarna	-9009
▁informationen	-9010
▁relatively	-9011
▁sis	-9012
▁proud	-9013
▁alcohol	-9014
▁performan	-9015
▁skandal	-9016
▁cuts	-9017
▁genomfört	-9018
leva	-9019
▁stödde	-9020
▁hindrar	-9021
▁anses	-9022
▁vägar	-9023
transport	-9024
▁subvention	-9025
▁punish	-9026
antering	-9027
▁enabling	-9028
▁slutgilt	-9029
egro	-9030
▁reve	-9031
▁timmar	-9032
▁decades	-9033
▁välkomm	-9034
▁determine	-9035
▁producing	-9036
▁moroc	-9037
▁räkna	-9038
▁besvik	-9039
▁clarity	-9040
▁medicin	-9041
▁science	-9042
▁bekräftar	-9043
▁gene	-9044
▁owners	-9045
iann	-9046
▁unre	-9047
▁försör	-9048
▁tariff	-9049
perienced	-9050
▁stött	-9051
marknaderna	-9052
▁modifierade	-9053
älvt	-9054
ännen	-9055
ecting	-9056
▁claims	-9057
▁corpor	-9058
▁hända	-9059
▁britain	-9060
▁greenhouse	-9061
iger	-9062
▁focused	-9063
ställning	-9064
▁cas	-9065
▁typen	-9066
▁hanteras	-9067
▁preva	-9068
▁violation	-9069
▁skuggföredrag	-9070
oud	-9071
▁fallen	-9072
▁socker	-9073
vest	-9074
iscrimin	-9075
▁guine	-9076
▁kritiska	-9077
▁unanimously	-9078
▁hat	-9079
▁pict	-9080
▁begärt	-9081
wan	-9082
▁paying	-9083
▁refers	-9084
▁hälften	-9085
▁certainty	-9086
▁achievement	-9087
övar	-9088
unnit	-9089
▁bost	-9090
övän	-9091
▁hels	-9092
▁utvärdera	-9093
▁översynen	-9094
▁kommentera	-9095
uote	-9096
uence	-9097
▁suitable	-9098
ustment	-9099
▁östers	-9100
▁applicable	-9101
▁vinna	-9102
▁betonas	-9103
▁oundvik	-9104
▁stressed	-9105
▁embry	-9106
▁enhance	-9107
▁begränsad	-9108
▁kristna	-9109
▁inrättas	-9110
▁nums	-9111
▁arbeten	-9112
▁respects	-9113
▁faith	-9114
▁städer	-9115
▁promised	-9116
▁remaining	-9117
▁competences	-9118
▁entrepreneur	-9119
▁ded	-9120
ramen	-9121
▁femte	-9122
▁införs	-9123
▁tvinga	-9124
▁uppföl	-9125
▁dispute	-9126
▁globalt	-9127
ökande	-9128
▁hemland	-9129
▁statligt	-9130
beral	-9131
▁avtalen	-9132
▁involver	-9133
▁insuff	-9134
▁uppnåtts	-9135
▁östeuropa	-9136
▁dimensionen	-9137
▁book	-9138
▁veckorna	-9139
▁regrettable	-9140
ält	-9141
▁mic	-9142
▁alternativa	-9143
▁terri	-9144
▁besvär	-9145
▁aspekterna	-9146
▁considerably	-9147
▁categor	-9148
▁eum	-9149
▁compon	-9150
▁rapidly	-9151
▁tillkännag	-9152
▁beslutsamhet	-9153
kande	-9154
▁hopes	-9155
▁varakt	-9156
▁feeling	-9157
▁accepterar	-9158
loc	-9159
orer	-9160
▁maced	-9161
▁eurostat	-9162
anen	-9163
▁alleg	-9164
▁storm	-9165
▁friheter	-9166
▁värt	-9167
▁incit	-9168
▁livsl	-9169
faction	-9170
▁oppose	-9171
▁pelaren	-9172
▁toppmöte	-9173
▁synd	-9174
ektion	-9175
▁upphäv	-9176
▁förändra	-9177
▁bekostnad	-9178
▁millennium	-9179
katt	-9180
▁cuba	-9181
▁replace	-9182
▁ärendet	-9183
▁konsolid	-9184
▁dictators	-9185
liva	-9186
▁michel	-9187
▁bevar	-9188
▁visas	-9189
▁yttrandet	-9190
▁väsentligt	-9191
assad	-9192
▁doubts	-9193
▁upphöra	-9194
▁ansvarig	-9195
ati	-9196
hund	-9197
▁utöv	-9198
▁veder	-9199
▁montenegro	-9200
▁nedskär	-9201
ärd	-9202
ämfö	-9203
▁hållbara	-9204
▁modellen	-9205
▁rid	-9206
▁känsla	-9207
▁säm	-9208
▁ensid	-9209
▁applications	-9210
▁advantages	-9211
▁succeeded	-9212
▁förverkliga	-9213
▁takt	-9214
sektor	-9215
▁spend	-9216
mord	-9217
stod	-9218
▁powerful	-9219
▁affecting	-9220
▁cro	-9221
ffekter	-9222
▁konverg	-9223
▁önskemål	-9224
fonder	-9225
▁utfört	-9226
älvfallet	-9227
▁utarbetat	-9228
▁encouraged	-9229
▁unnecessary	-9230
ekten	-9231
▁sats	-9232
▁valk	-9233
▁etniska	-9234
▁afternoon	-9235
▁bilar	-9236
▁gynna	-9237
▁racism	-9238
▁eftermid	-9239
▁reaching	-9240
▁legitimacy	-9241
▁biggest	-9242
▁ale	-9243
▁scr	-9244
stock	-9245
▁reglera	-9246
ato	-9247
etagen	-9248
▁förväg	-9249
▁översväm	-9250
▁awa	-9251
▁declared	-9252
▁fruktans	-9253
▁marknadens	-9254
▁supplementary	-9255
wa	-9256
vatt	-9257
skost	-9258
▁aside	-9259
▁detri	-9260
▁förka	-9261
▁tillförlit	-9262
▁utök	-9263
▁israeliska	-9264
▁contributed	-9265
▁intelligent	-9266
▁undertakings	-9267
▁studer	-9268
▁invånare	-9269
idem	-9270
▁performance	-9271
▁reflected	-9272
▁danish	-9273
fur	-9274
älvständighet	-9275
▁ist	-9276
▁förstått	-9277
▁foundation	-9278
▁fördelarna	-9279
▁ferr	-9280
▁cirka	-9281
pressing	-9282
▁favourable	-9283
▁federation	-9284
▁fifth	-9285
▁bedrägeri	-9286
▁utländska	-9287
▁förvå	-9288
▁hemma	-9289
▁employers	-9290
▁historical	-9291
▁incomp	-9292
▁indirect	-9293
▁constitutes	-9294
▁numstrategin	-9295
▁förnybar	-9296
▁integrerad	-9297
▁röstförklar	-9298
▁utarbetandet	-9299
▁rigor	-9300
aktioner	-9301
▁negotiated	-9302
▁reass	-9303
▁endors	-9304
▁gynnar	-9305
▁leaving	-9306
vitt	-9307
▁förföl	-9308
▁industr	-9309
▁diskuterat	-9310
▁dog	-9311
▁biodivers	-9312
▁ögonblick	-9313
utive	-9314
▁skapat	-9315
▁införas	-9316
▁alliansen	-9317
▁punkterna	-9318
oted	-9319
estämm	-9320
▁erkänn	-9321
▁removed	-9322
▁kriterierna	-9323
varor	-9324
▁wind	-9325
▁demograph	-9326
ls	-9327
ham	-9328
partner	-9329
▁fantast	-9330
▁strävar	-9331
mo	-9332
fiken	-9333
▁trave	-9334
▁dåliga	-9335
▁förtyd	-9336
▁övertyga	-9337
stans	-9338
▁watch	-9339
fördrag	-9340
▁dublin	-9341
▁unlike	-9342
▁armed	-9343
▁ordinary	-9344
▁hänvisning	-9345
formation	-9346
ted	-9347
ading	-9348
▁budgetp	-9349
▁buildings	-9350
▁strukturella	-9351
▁lift	-9352
istera	-9353
▁blair	-9354
▁modified	-9355
▁historien	-9356
▁biodiversity	-9357
▁kuba	-9358
▁vart	-9359
väckande	-9360
▁stimulera	-9361
cle	-9362
mann	-9363
▁konstruktiva	-9364
kommun	-9365
▁propag	-9366
▁belgien	-9367
▁organism	-9368
▁världshandels	-9369
enship	-9370
▁meddelandet	-9371
▁priset	-9372
▁surround	-9373
▁tidsplan	-9374
▁molda	-9375
▁budgetplanen	-9376
aves	-9377
▁doct	-9378
▁mold	-9379
▁frågar	-9380
▁marketing	-9381
▁install	-9382
konventionen	-9383
▁överensstämm	-9384
icans	-9385
▁vast	-9386
▁utsatta	-9387
▁everybody	-9388
▁inspir	-9389
▁liberties	-9390
▁willingness	-9391
▁mc	-9392
▁drivers	-9393
▁strukturer	-9394
▁norra	-9395
▁multinational	-9396
pir	-9397
▁sud	-9398
▁raising	-9399
raid	-9400
▁förne	-9401
▁danmark	-9402
▁undersö	-9403
alties	-9404
▁svarta	-9405
▁bosnien	-9406
▁valutan	-9407
een	-9408
tagande	-9409
▁dynamic	-9410
▁euromed	-9411
▁reservations	-9412
aker	-9413
▁dit	-9414
▁param	-9415
▁perform	-9416
▁ordnings	-9417
▁basically	-9418
▁europar	-9419
troller	-9420
ämpning	-9421
▁medelhavet	-9422
▁medlemsländer	-9423
▁bosnia	-9424
▁combined	-9425
iable	-9426
▁orient	-9427
▁utmost	-9428
▁denmark	-9429
▁finansiell	-9430
▁noon	-9431
▁scrutin	-9432
▁fastställer	-9433
▁afraid	-9434
▁communist	-9435
▁tai	-9436
amined	-9437
▁arise	-9438
▁targeted	-9439
ningsmedel	-9440
skal	-9441
▁engage	-9442
▁utsätts	-9443
▁hälsovård	-9444
ckte	-9445
▁alar	-9446
reshold	-9447
▁sträva	-9448
▁förändras	-9449
▁generaldire	-9450
oret	-9451
▁avsedda	-9452
resh	-9453
▁eye	-9454
▁mit	-9455
▁cens	-9456
▁utrikesminister	-9457
▁läsa	-9458
▁skam	-9459
▁enormt	-9460
▁threshold	-9461
▁integrering	-9462
▁katastrofer	-9463
stransport	-9464
▁incentives	-9465
▁uppförande	-9466
▁regeringschef	-9467
▁hong	-9468
▁atmos	-9469
▁upps	-9470
▁ledning	-9471
oured	-9472
▁våldet	-9473
▁begränsas	-9474
▁simplification	-9475
▁weight	-9476
▁progressive	-9477
▁nötk	-9478
▁uttala	-9479
▁prioritera	-9480
▁prioriterade	-9481
▁folkomröstning	-9482
▁cast	-9483
okollet	-9484
▁smaller	-9485
▁reiterate	-9486
▁twenty	-9487
▁unity	-9488
▁totalit	-9489
relaterade	-9490
▁regardless	-9491
sla	-9492
▁dagen	-9493
▁electoral	-9494
asm	-9495
▁vak	-9496
▁nearly	-9497
▁entered	-9498
instrument	-9499
▁sake	-9500
▁tight	-9501
▁olyckor	-9502
▁producenter	-9503
parts	-9504
▁tests	-9505
▁intervene	-9506
▁medborgares	-9507
ualifications	-9508
väs	-9509
perioden	-9510
▁obtained	-9511
▁presenting	-9512
▁fratt	-9513
▁regarded	-9514
▁numa	-9515
▁persu	-9516
▁articles	-9517
▁dio	-9518
▁piece	-9519
▁upphandling	-9520
höll	-9521
▁slutsatsen	-9522
▁fastställts	-9523
▁målsättningar	-9524
plet	-9525
▁respective	-9526
mil	-9527
wei	-9528
▁når	-9529
▁ländernas	-9530
posed	-9531
▁hålls	-9532
▁fairly	-9533
landet	-9534
▁generations	-9535
lagstiftningen	-9536
▁farligt	-9537
▁negotiate	-9538
▁förfarandena	-9539
▁bemöta	-9540
▁förrän	-9541
▁motsäg	-9542
vän	-9543
▁dollar	-9544
▁deserve	-9545
uiry	-9546
wing	-9547
▁ombudsmannen	-9548
▁airc	-9549
▁importantly	-9550
▁kly	-9551
related	-9552
▁deeply	-9553
▁riskerna	-9554
▁slovakien	-9555
▁charge	-9556
▁entail	-9557
▁tillfälliga	-9558
när	-9559
▁army	-9560
▁pröv	-9561
▁hårda	-9562
▁minskat	-9563
▁farhågor	-9564
▁inblandade	-9565
iers	-9566
▁door	-9567
▁hänger	-9568
▁creates	-9569
skonferens	-9570
▁uppmaning	-9571
▁declarations	-9572
▁summer	-9573
▁orsakar	-9574
▁ute	-9575
värden	-9576
▁lyfta	-9577
▁persec	-9578
tability	-9579
thus	-9580
▁nationerna	-9581
▁kompletterande	-9582
nät	-9583
lingar	-9584
▁avslö	-9585
▁köpenhamn	-9586
▁passagerar	-9587
▁elektroniska	-9588
ningst	-9589
▁frust	-9590
▁utgår	-9591
▁orsaken	-9592
▁drafting	-9593
▁congratulations	-9594
oga	-9595
▁contradict	-9596
▁welcomes	-9597
▁överallt	-9598
orate	-9599
▁catch	-9600
▁klargör	-9601
▁moratorium	-9602
▁enkla	-9603
resurser	-9604
▁campaig	-9605
▁incorporated	-9606
▁europaråd	-9607
▁geografiska	-9608
nitt	-9609
cluded	-9610
▁kreat	-9611
▁anpassning	-9612
▁foundations	-9613
▁dödsstraffet	-9614
▁räck	-9615
mässiga	-9616
▁wording	-9617
▁luftfarts	-9618
▁centralbank	-9619
sre	-9620
▁kro	-9621
▁tvång	-9622
▁styrka	-9623
▁inspekt	-9624
▁partnerskapet	-9625
▁träda	-9626
▁önska	-9627
▁fångar	-9628
▁synerg	-9629
riterierna	-9630
▁byråkrati	-9631
fen	-9632
▁frivillig	-9633
ifier	-9634
while	-9635
▁darfur	-9636
▁populations	-9637
▁förordningar	-9638
lan	-9639
▁sov	-9640
▁anticip	-9641
ceptional	-9642
▁students	-9643
▁myndigheten	-9644
tremt	-9645
▁trö	-9646
▁firms	-9647
▁stipul	-9648
▁biologiska	-9649
▁uppgifterna	-9650
okument	-9651
▁minuter	-9652
▁påverkas	-9653
oly	-9654
▁buy	-9655
actions	-9656
▁night	-9657
▁drabbar	-9658
▁enhetlig	-9659
▁visering	-9660
▁engel	-9661
▁guant	-9662
▁avstånd	-9663
▁hållbart	-9664
▁beef	-9665
▁showing	-9666
▁synvinkel	-9667
ophob	-9668
▁inhem	-9669
▁förvir	-9670
▁marine	-9671
▁redund	-9672
▁credible	-9673
▁enhanced	-9674
▁makedonien	-9675
▁kinn	-9676
▁sänk	-9677
▁absurd	-9678
▁israels	-9679
rens	-9680
▁macro	-9681
ystemet	-9682
▁restore	-9683
rien	-9684
tton	-9685
▁döl	-9686
▁uttrycker	-9687
▁settlement	-9688
▁vägled	-9689
▁generellt	-9690
▁suggestions	-9691
▁ministerrådet	-9692
▁fredsprocessen	-9693
priot	-9694
▁derog	-9695
▁sched	-9696
▁revised	-9697
▁integrera	-9698
istics	-9699
säkerhet	-9700
ariat	-9701
comings	-9702
▁svårare	-9703
▁shortcomings	-9704
uds	-9705
såtgärder	-9706
▁identitet	-9707
▁stockholm	-9708
▁complaints	-9709
▁sought	-9710
do	-9711
bid	-9712
▁hotar	-9713
▁makro	-9714
▁economically	-9715
▁sorts	-9716
▁förlorat	-9717
▁straight	-9718
rätta	-9719
▁eyes	-9720
▁dubbel	-9721
▁separat	-9722
▁vinster	-9723
urit	-9724
▁psyk	-9725
pensive	-9726
▁prompt	-9727
▁deadline	-9728
▁penalties	-9729
▁latinamerika	-9730
bow	-9731
▁nack	-9732
▁disabled	-9733
▁liability	-9734
▁balanserad	-9735
▁bureaucratic	-9736
▁nivån	-9737
▁procure	-9738
▁ambassad	-9739
▁osäkerhet	-9740
▁educational	-9741
▁gi	-9742
▁broader	-9743
▁referens	-9744
▁tillgänglig	-9745
häng	-9746
▁transactions	-9747
▁wides	-9748
▁ända	-9749
▁förmid	-9750
▁uppfattningen	-9751
åts	-9752
▁tolk	-9753
▁homose	-9754
▁polska	-9755
▁motions	-9756
▁skadliga	-9757
▁församling	-9758
opard	-9759
▁framh	-9760
öra	-9761
▁seg	-9762
▁klausul	-9763
▁solidaritets	-9764
ecd	-9765
ites	-9766
▁imf	-9767
ammant	-9768
▁tackling	-9769
▁sägas	-9770
▁checks	-9771
▁alongside	-9772
igu	-9773
▁terrible	-9774
▁eliminate	-9775
▁bete	-9776
▁fewer	-9777
▁oroar	-9778
▁saddam	-9779
▁reflects	-9780
▁transatlantiska	-9781
ustify	-9782
▁frågest	-9783
▁surprised	-9784
rupp	-9785
▁kämpa	-9786
▁hardly	-9787
▁behoven	-9788
▁acceptab	-9789
▁anger	-9790
▁turned	-9791
▁gradvis	-9792
▁bedrägerier	-9793
▁anslutningen	-9794
▁delays	-9795
▁suspended	-9796
▁candidates	-9797
aly	-9798
cio	-9799
▁diagn	-9800
▁brasil	-9801
▁tillsyn	-9802
▁outstanding	-9803
institutionella	-9804
ils	-9805
▁fire	-9806
▁prote	-9807
▁custom	-9808
▁bränsle	-9809
▁moderna	-9810
▁återför	-9811
▁tonnes	-9812
▁grundar	-9813
▁folkpartiet	-9814
▁bir	-9815
pread	-9816
▁paris	-9817
▁select	-9818
kommunik	-9819
ändes	-9820
▁applicant	-9821
▁hållbarhet	-9822
▁repeatedly	-9823
▁undertaking	-9824
▁komplicerade	-9825
▁soft	-9826
▁associations	-9827
▁haiti	-9828
▁vänder	-9829
▁abolition	-9830
illa	-9831
▁obal	-9832
▁summ	-9833
imately	-9834
thusgas	-9835
▁mervärd	-9836
▁underline	-9837
andets	-9838
▁paketet	-9839
▁slovakia	-9840
▁widespread	-9841
▁regelbundet	-9842
makt	-9843
▁pala	-9844
▁plat	-9845
▁räknar	-9846
▁bolk	-9847
▁dålig	-9848
▁söder	-9849
▁kal	-9850
▁necessarily	-9851
iasm	-9852
▁ägde	-9853
▁värre	-9854
kommande	-9855
▁utskottets	-9856
ointly	-9857
▁hunger	-9858
▁länders	-9859
▁cot	-9860
▁tough	-9861
▁avsk	-9862
▁canc	-9863
eopard	-9864
▁välfärd	-9865
▁naturkatastro	-9866
road	-9867
▁blood	-9868
▁listan	-9869
▁inta	-9870
▁fortun	-9871
▁förena	-9872
sbestämm	-9873
ores	-9874
▁aircraft	-9875
▁stabiliteten	-9876
▁garanti	-9877
uota	-9878
▁fresh	-9879
▁inrikta	-9880
▁psegruppen	-9881
▁tyst	-9882
▁admit	-9883
▁falls	-9884
ournalists	-9885
▁religions	-9886
▁transeuropeiska	-9887
▁incom	-9888
▁schwei	-9889
iskrimin	-9890
▁discover	-9891
▁invändningar	-9892
amin	-9893
king	-9894
▁perpet	-9895
▁string	-9896
▁trygga	-9897
▁velat	-9898
pansion	-9899
▁meddela	-9900
▁periods	-9901
▁telecommun	-9902
lagstiftning	-9903
▁belgiska	-9904
▁kvalitets	-9905
▁observation	-9906
▁insufficient	-9907
cif	-9908
▁tang	-9909
▁kinds	-9910
▁nigeria	-9911
▁airports	-9912
▁resulted	-9913
▁territories	-9914
▁kvant	-9915
ågan	-9916
illed	-9917
▁cell	-9918
▁york	-9919
stream	-9920
stagande	-9921
▁kontakter	-9922
lish	-9923
▁deltog	-9924
▁losses	-9925
▁washing	-9926
▁physical	-9927
▁innovations	-9928
▁pir	-9929
▁torture	-9930
▁vidtagit	-9931
traordinary	-9932
ecutive	-9933
▁engagera	-9934
▁incitament	-9935
▁preparations	-9936
▁mob	-9937
ohann	-9938
▁elder	-9939
läggning	-9940
▁styrning	-9941
ordbrukspolitik	-9942
oli	-9943
ales	-9944
▁unw	-9945
▁fästa	-9946
▁skyddar	-9947
▁cele	-9948
▁tvun	-9949
▁utfråg	-9950
▁familiar	-9951
▁procurement	-9952
▁samordningen	-9953
▁ig	-9954
stuff	-9955
▁ökningen	-9956
obod	-9957
odell	-9958
▁lista	-9959
▁talas	-9960
▁innefattar	-9961
osev	-9962
krafts	-9963
itative	-9964
frågorna	-9965
▁tillgod	-9966
▁rättfärd	-9967
▁demographic	-9968
sförs	-9969
▁godkände	-9970
▁undermine	-9971
▁terrorists	-9972
risk	-9973
▁rym	-9974
pense	-9975
▁dossi	-9976
▁femton	-9977
▁english	-9978
▁föreslagits	-9979
▁köpa	-9980
iannual	-9981
▁santer	-9982
utby	-9983
▁fleet	-9984
plained	-9985
▁milosev	-9986
▁påminner	-9987
▁överföring	-9988
▁rättsa	-9989
ändernas	-9990
▁humanitärt	-9991
▁organiserade	-9992
▁planerar	-9993
▁delegationen	-9994
▁konservativa	-9995
▁mas	-9996
ämmande	-9997
▁medborgar	-9998
▁dagordning	-9999
▁österrikiska	-10000
▁rome	-10001
▁commend	-10002
▁picture	-10003
▁drö	-10004
▁below	-10005
ohannes	-10006
▁tidsfrist	-10007
▁fördöma	-10008
▁förflut	-10009
▁madrid	-10010
▁swobod	-10011
▁rättegång	-10012
emed	-10013
▁utslag	-10014
▁fara	-10015
▁asien	-10016
▁somal	-10017
▁framstegen	-10018
▁insta	-10019
unionen	-10020
▁danska	-10021
▁permit	-10022
▁colombia	-10023
▁konstaterar	-10024
▁unfortunate	-10025
▁shift	-10026
ommission	-10027
▁införande	-10028
▁säkerligen	-10029
ama	-10030
rygg	-10031
▁raw	-10032
▁tider	-10033
▁frattini	-10034
▁vall	-10035
▁retain	-10036
▁elderly	-10037
▁ethical	-10038
▁kemikal	-10039
▁samfundet	-10040
▁processing	-10041
▁banking	-10042
▁pleasure	-10043
▁utmaningarna	-10044
skrisen	-10045
▁drafted	-10046
▁lessons	-10047
spris	-10048
▁blind	-10049
▁sek	-10050
▁vatt	-10051
▁plikt	-10052
▁protektion	-10053
ibla	-10054
▁våg	-10055
▁vack	-10056
▁priserna	-10057
bling	-10058
▁nomin	-10059
▁riktar	-10060
ered	-10061
▁åtn	-10062
▁trial	-10063
▁flygbolag	-10064
▁utrikesfrågor	-10065
▁relate	-10066
ömässiga	-10067
▁regulate	-10068
▁macedonia	-10069
▁demonstration	-10070
▁ba	-10071
hard	-10072
icated	-10073
▁igång	-10074
▁geneva	-10075
▁uppstått	-10076
lösa	-10077
▁ree	-10078
▁antid	-10079
▁barns	-10080
▁deaths	-10081
▁fördömer	-10082
▁regulated	-10083
▁restricted	-10084
▁hävda	-10085
▁påskynda	-10086
▁intensive	-10087
reglerna	-10088
▁lidande	-10089
▁avgöra	-10090
▁fängsl	-10091
▁uncertainty	-10092
▁stod	-10093
▁award	-10094
▁förmed	-10095
▁tortyr	-10096
▁freden	-10097
▁chapter	-10098
▁gradually	-10099
eter	-10100
opoul	-10101
▁parado	-10102
▁allocation	-10103
▁ställas	-10104
osition	-10105
▁indicators	-10106
▁unilateral	-10107
orient	-10108
▁dumping	-10109
▁reserve	-10110
▁oms	-10111
▁barnen	-10112
▁warning	-10113
▁behöriga	-10114
▁preserve	-10115
▁organismer	-10116
▁mikro	-10117
level	-10118
▁påtag	-10119
▁verksamheter	-10120
▁assum	-10121
▁förde	-10122
▁löften	-10123
▁medell	-10124
▁abstained	-10125
▁arbetslösa	-10126
▁framgångsrika	-10127
▁oecd	-10128
▁iaktt	-10129
▁stance	-10130
▁godkänt	-10131
▁generalsekret	-10132
▁skaff	-10133
▁attity	-10134
▁bedriva	-10135
▁causing	-10136
▁receiving	-10137
▁konvergens	-10138
▁tillfredsställ	-10139
spers	-10140
▁hänvisa	-10141
▁fokusera	-10142
▁coordinate	-10143
▁multiannual	-10144
▁bolke	-10145
▁folkhälsan	-10146
▁finances	-10147
▁multinationella	-10148
▁observat	-10149
▁reduc	-10150
▁remed	-10151
▁parents	-10152
▁mänsklig	-10153
▁similarly	-10154
▁warmly	-10155
▁civilian	-10156
▁indicate	-10157
▁energiförsör	-10158
▁widely	-10159
sföretag	-10160
▁lasting	-10161
▁satisfaction	-10162
▁anslutningsför	-10163
last	-10164
huvud	-10165
▁puts	-10166
▁shape	-10167
▁missbruk	-10168
▁inkomster	-10169
▁övertygelse	-10170
▁demonstrates	-10171
athy	-10172
▁larger	-10173
▁preca	-10174
▁popular	-10175
▁scandal	-10176
▁universitet	-10177
▁sat	-10178
▁driver	-10179
ceptions	-10180
▁islamic	-10181
▁promises	-10182
sförhållanden	-10183
general	-10184
▁skattes	-10185
▁utomord	-10186
▁fängelse	-10187
▁kollektiv	-10188
▁von	-10189
bindel	-10190
▁battle	-10191
▁fenomen	-10192
▁förlorar	-10193
▁condemned	-10194
can	-10195
▁freely	-10196
▁ärenden	-10197
▁årsrapport	-10198
▁spect	-10199
▁became	-10200
▁enklare	-10201
▁ansvarar	-10202
▁ägnar	-10203
▁obligatoriska	-10204
▁avbry	-10205
▁utmaningen	-10206
oe	-10207
erba	-10208
flöd	-10209
▁föreligger	-10210
▁presentera	-10211
▁införliva	-10212
▁voc	-10213
▁decre	-10214
▁förfal	-10215
▁shares	-10216
▁diskuterade	-10217
▁dictatorship	-10218
▁rekommenderar	-10219
▁blå	-10220
▁flu	-10221
▁årtion	-10222
▁specifikt	-10223
kal	-10224
▁försum	-10225
▁offering	-10226
förordningen	-10227
▁kompromissen	-10228
▁skr	-10229
▁standing	-10230
▁tolkning	-10231
▁ambitioner	-10232
▁harmonised	-10233
lings	-10234
▁stund	-10235
▁försvag	-10236
▁räkning	-10237
▁friheten	-10238
▁ecological	-10239
▁mun	-10240
ologi	-10241
building	-10242
▁division	-10243
▁collaboration	-10244
▁brottmål	-10245
▁pursuant	-10246
▁unemployed	-10247
▁finansiellt	-10248
▁transeuropean	-10249
uival	-10250
▁korta	-10251
▁åtföl	-10252
▁eftermiddag	-10253
order	-10254
▁världssam	-10255
▁sammanhållnings	-10256
ially	-10257
▁irreg	-10258
▁plus	-10259
▁guard	-10260
▁deploy	-10261
▁balansen	-10262
▁förtroendet	-10263
▁personuppgifter	-10264
▁ignore	-10265
▁taiwan	-10266
▁utvecklingssam	-10267
▁albania	-10268
▁delegations	-10269
gyn	-10270
▁inhab	-10271
▁alkohol	-10272
▁informal	-10273
nish	-10274
onial	-10275
▁veget	-10276
▁occurred	-10277
▁kommersiella	-10278
egr	-10279
▁chain	-10280
▁roads	-10281
▁berätta	-10282
▁företaget	-10283
▁betänkandena	-10284
▁upprättandet	-10285
▁samst	-10286
▁varav	-10287
▁upplever	-10288
▁telekommunik	-10289
▁covers	-10290
▁rating	-10291
märkning	-10292
▁beslutsfatt	-10293
▁track	-10294
▁kinnock	-10295
▁torsdag	-10296
▁emerging	-10297
▁föreskrivs	-10298
place	-10299
skontroll	-10300
eys	-10301
skval	-10302
▁rasism	-10303
▁tension	-10304
▁ledarskap	-10305
▁uppgiften	-10306
levnad	-10307
▁perspectives	-10308
viet	-10309
▁hori	-10310
ondition	-10311
▁engelska	-10312
▁financed	-10313
▁collection	-10314
▁palestinians	-10315
▁cigar	-10316
▁listened	-10317
▁väsentliga	-10318
otten	-10319
▁reloc	-10320
▁skriva	-10321
▁stream	-10322
▁forests	-10323
iot	-10324
berg	-10325
isektorn	-10326
▁reinforce	-10327
▁engaged	-10328
▁ambitions	-10329
look	-10330
▁fasta	-10331
▁hantering	-10332
▁invandringen	-10333
▁kat	-10334
▁wise	-10335
▁supplies	-10336
▁långtgående	-10337
▁definitionen	-10338
▁mos	-10339
slöst	-10340
▁chemicals	-10341
cyc	-10342
ontals	-10343
inf	-10344
▁rek	-10345
culation	-10346
▁rena	-10347
▁affärs	-10348
▁sphere	-10349
arbetare	-10350
partiets	-10351
▁överträdel	-10352
fund	-10353
▁diam	-10354
▁immat	-10355
▁strike	-10356
▁promoted	-10357
▁oppositionen	-10358
föd	-10359
▁couple	-10360
put	-10361
▁färre	-10362
▁choices	-10363
▁vederbör	-10364
lagda	-10365
▁noise	-10366
▁årets	-10367
▁unanimous	-10368
▁beneficial	-10369
▁avsländerna	-10370
▁coin	-10371
▁fragment	-10372
▁hopefully	-10373
udge	-10374
▁drink	-10375
▁ålder	-10376
▁kämpar	-10377
▁nämner	-10378
dde	-10379
ohn	-10380
▁vu	-10381
▁smugg	-10382
▁utest	-10383
▁viable	-10384
▁suspect	-10385
▁necessity	-10386
▁negativt	-10387
▁förlorade	-10388
▁suveränitet	-10389
▁misslyckande	-10390
▁ms	-10391
▁nåd	-10392
▁orden	-10393
▁styrkor	-10394
▁struggle	-10395
▁institute	-10396
▁protester	-10397
▁conce	-10398
▁besvar	-10399
▁mercos	-10400
▁diktatur	-10401
▁institut	-10402
▁irregular	-10403
hara	-10404
unction	-10405
▁gemenskapsnivå	-10406
▁muslim	-10407
▁observed	-10408
▁organisera	-10409
▁uppmuntrar	-10410
ansen	-10411
▁helh	-10412
▁bespar	-10413
▁orsaker	-10414
▁weakness	-10415
▁underlätt	-10416
▁suggestion	-10417
befolk	-10418
▁relie	-10419
▁outset	-10420
▁utbetal	-10421
▁kyr	-10422
lande	-10423
▁fredlig	-10424
▁misslyckas	-10425
los	-10426
ässig	-10427
rådets	-10428
▁search	-10429
▁declare	-10430
▁kilomet	-10431
▁dokumentet	-10432
▁harmonisera	-10433
▁multilaterala	-10434
▁medi	-10435
istens	-10436
▁birth	-10437
▁lifel	-10438
▁arising	-10439
situ	-10440
▁timely	-10441
▁ställde	-10442
▁resulter	-10443
▁numnumcod	-10444
▁effektiviteten	-10445
▁inleddes	-10446
försäkring	-10447
▁americans	-10448
▁image	-10449
bestånd	-10450
▁counterfe	-10451
lock	-10452
▁köns	-10453
▁sekret	-10454
ualities	-10455
▁sending	-10456
▁sharing	-10457
▁kvalificerad	-10458
▁funktionshindra	-10459
▁imbal	-10460
planations	-10461
ensible	-10462
▁deteri	-10463
▁illegala	-10464
▁lithuania	-10465
▁kriser	-10466
▁undertake	-10467
▁förhållandena	-10468
uka	-10469
ätte	-10470
rorna	-10471
▁känt	-10472
▁drafts	-10473
▁vanligt	-10474
▁reformerna	-10475
▁framgångsrik	-10476
▁uppmärksamheten	-10477
▁organiserad	-10478
▁brottsligheten	-10479
▁kau	-10480
stuffs	-10481
illance	-10482
korea	-10483
▁tolv	-10484
▁attend	-10485
▁beteck	-10486
▁kallar	-10487
▁killed	-10488
▁strängare	-10489
▁washington	-10490
hear	-10491
▁notice	-10492
▁räckvid	-10493
▁bann	-10494
▁tyng	-10495
▁began	-10496
ressive	-10497
▁promise	-10498
▁avlägsna	-10499
sförfarande	-10500
▁desper	-10501
▁levnad	-10502
▁rising	-10503
▁migrants	-10504
▁förbe	-10505
▁samla	-10506
▁godkänner	-10507
▁conservation	-10508
▁mach	-10509
▁ständiga	-10510
▁coherence	-10511
▁prevented	-10512
finansiering	-10513
dis	-10514
sättas	-10515
▁beaktande	-10516
▁supervisory	-10517
▁regionalpolitik	-10518
▁godkänts	-10519
▁defending	-10520
cal	-10521
▁albanien	-10522
cis	-10523
▁spän	-10524
▁stry	-10525
relser	-10526
sinstrument	-10527
▁communitys	-10528
▁compatible	-10529
▁föroreningar	-10530
▁entrepreneurs	-10531
ball	-10532
▁frid	-10533
▁stick	-10534
▁looked	-10535
▁svarar	-10536
▁shortly	-10537
▁migrations	-10538
▁surveillance	-10539
änkta	-10540
itutions	-10541
▁bredare	-10542
▁formellt	-10543
▁tragiska	-10544
▁bett	-10545
▁vänster	-10546
▁planerade	-10547
▁anord	-10548
▁dagarna	-10549
▁planering	-10550
▁uttryckte	-10551
▁utrustning	-10552
▁biof	-10553
▁endeavour	-10554
▁samarbetar	-10555
▁skedde	-10556
▁talked	-10557
▁clearer	-10558
▁egypten	-10559
▁railways	-10560
▁restrikt	-10561
▁kollegerna	-10562
▁cha	-10563
▁avsak	-10564
▁coton	-10565
▁osv	-10566
▁vägrar	-10567
▁kollegor	-10568
▁minskade	-10569
inna	-10570
▁irre	-10571
▁eurat	-10572
▁notera	-10573
ademokrat	-10574
▁inbegripet	-10575
▁yrkesutbildning	-10576
lied	-10577
tile	-10578
ience	-10579
▁kast	-10580
ringar	-10581
▁bryta	-10582
▁avsnitt	-10583
▁motsats	-10584
▁sannolikt	-10585
▁ekologiska	-10586
ereg	-10587
målen	-10588
rättens	-10589
▁möd	-10590
▁stem	-10591
ökning	-10592
▁stolt	-10593
▁accessible	-10594
▁kärnkrafts	-10595
slagstiftningen	-10596
▁bow	-10597
▁instämma	-10598
▁nödvändigheten	-10599
▁blame	-10600
▁kanada	-10601
▁tillgångar	-10602
▁politikområden	-10603
bell	-10604
urate	-10605
▁muga	-10606
▁disagree	-10607
ifies	-10608
▁recogni	-10609
▁organise	-10610
▁bekämpning	-10611
▁accompanied	-10612
▁kh	-10613
▁vehicle	-10614
▁europademokrat	-10615
▁marknadsekonom	-10616
▁östra	-10617
▁enthus	-10618
område	-10619
▁micro	-10620
ney	-10621
▁ägt	-10622
rivel	-10623
▁freight	-10624
▁contacts	-10625
▁försökte	-10626
▁direktivets	-10627
etus	-10628
▁förvån	-10629
▁soviet	-10630
▁cotonou	-10631
▁förutsätter	-10632
▁authorisation	-10633
▁fla	-10634
▁påföl	-10635
▁multip	-10636
▁stärker	-10637
▁övertygade	-10638
oke	-10639
▁asyls	-10640
▁värsta	-10641
▁broadcast	-10642
▁frivilliga	-10643
▁respecting	-10644
▁sli	-10645
▁tittar	-10646
▁numnumeg	-10647
▁sincerely	-10648
▁keen	-10649
▁vaccin	-10650
▁indirekt	-10651
▁congratulating	-10652
▁minns	-10653
versial	-10654
▁epidem	-10655
▁termin	-10656
▁alternatives	-10657
▁sorg	-10658
▁nämnda	-10659
clusively	-10660
▁bestraff	-10661
▁samstämm	-10662
▁instru	-10663
▁troops	-10664
▁efficiently	-10665
ables	-10666
▁revenue	-10667
▁försvarar	-10668
ds	-10669
hn	-10670
orerna	-10671
▁loans	-10672
▁söker	-10673
▁divided	-10674
▁moldova	-10675
▁liberals	-10676
▁atlantic	-10677
▁beskattning	-10678
lims	-10679
▁fattar	-10680
▁underr	-10681
▁rimligt	-10682
▁sark	-10683
▁ster	-10684
▁ineff	-10685
▁betrakta	-10686
▁definiera	-10687
▁clarification	-10688
▁corb	-10689
▁wage	-10690
▁barbar	-10691
▁canada	-10692
▁klarar	-10693
▁stations	-10694
▁campaigns	-10695
▁synnerligen	-10696
lifer	-10697
▁mobile	-10698
▁försvin	-10699
periencing	-10700
▁monti	-10701
▁kvarstår	-10702
▁olagligt	-10703
▁överskrid	-10704
▁uppförandek	-10705
▁calcul	-10706
▁upplev	-10707
▁percentage	-10708
▁tillsynsmynd	-10709
▁radik	-10710
▁tribute	-10711
▁tangible	-10712
▁luck	-10713
▁crops	-10714
▁ferrer	-10715
▁morocco	-10716
▁parallel	-10717
▁milosevic	-10718
ano	-10719
tving	-10720
▁ange	-10721
▁prioriteras	-10722
▁understryker	-10723
▁erad	-10724
▁tvist	-10725
▁visum	-10726
▁regimen	-10727
▁betalnings	-10728
stra	-10729
slösa	-10730
▁lifelong	-10731
ournalister	-10732
▁misslyckats	-10733
▁sänka	-10734
enien	-10735
▁löner	-10736
▁baseras	-10737
▁pursued	-10738
▁medellång	-10739
▁återvända	-10740
komsten	-10741
sklausul	-10742
▁evident	-10743
resolution	-10744
▁slår	-10745
agement	-10746
änstgörande	-10747
▁kontrolleras	-10748
farten	-10749
▁agrees	-10750
▁finnish	-10751
▁koncept	-10752
▁förväntas	-10753
▁långsiktig	-10754
▁systemen	-10755
ained	-10756
▁usual	-10757
▁intressanta	-10758
▁passagerare	-10759
sbas	-10760
▁outer	-10761
▁traditions	-10762
▁yugoslavia	-10763
öms	-10764
urisd	-10765
▁route	-10766
▁closure	-10767
▁rare	-10768
▁dyr	-10769
appro	-10770
udgment	-10771
▁sammanhängande	-10772
oined	-10773
tering	-10774
antörer	-10775
▁aggress	-10776
▁delaktiga	-10777
▁wed	-10778
▁plenum	-10779
▁sprida	-10780
▁tvungen	-10781
▁strategisk	-10782
tpakten	-10783
▁swoboda	-10784
▁strictly	-10785
▁moved	-10786
▁shock	-10787
▁stanna	-10788
▁verkställande	-10789
▁foss	-10790
iellt	-10791
ploat	-10792
▁soil	-10793
▁title	-10794
▁ordent	-10795
▁refuse	-10796
▁mercosur	-10797
▁cash	-10798
aching	-10799
oining	-10800
▁fullföl	-10801
▁inhabit	-10802
▁kapitel	-10803
▁potentiella	-10804
kun	-10805
▁phar	-10806
▁negativ	-10807
▁friendly	-10808
▁motverka	-10809
▁integrations	-10810
ware	-10811
▁hypoc	-10812
▁botten	-10813
▁chechn	-10814
▁newspa	-10815
▁band	-10816
▁pakt	-10817
▁items	-10818
▁århund	-10819
position	-10820
▁studier	-10821
▁fit	-10822
▁leon	-10823
▁poetter	-10824
▁reformera	-10825
▁peka	-10826
▁grannar	-10827
▁genetically	-10828
gav	-10829
▁shor	-10830
▁compete	-10831
▁adm	-10832
▁mere	-10833
inrikt	-10834
▁merit	-10835
▁lämnas	-10836
ämförelse	-10837
▁imposing	-10838
ifikationer	-10839
▁undertecknat	-10840
anging	-10841
▁dream	-10842
▁ruling	-10843
▁harbour	-10844
▁disappointed	-10845
▁antib	-10846
eckiska	-10847
▁housing	-10848
▁palacio	-10849
▁benefici	-10850
▁utsläppsrätt	-10851
ented	-10852
▁tviv	-10853
▁apparent	-10854
▁förberedelserna	-10855
▁obs	-10856
▁farms	-10857
▁hyser	-10858
▁inledande	-10859
▁provin	-10860
▁grunder	-10861
knipp	-10862
äkter	-10863
▁landsbygds	-10864
count	-10865
▁råda	-10866
▁medger	-10867
▁chechnya	-10868
▁enlarged	-10869
▁reflection	-10870
osis	-10871
▁sele	-10872
▁överensstämmer	-10873
▁slog	-10874
▁entus	-10875
▁hörde	-10876
▁uppgår	-10877
▁coastal	-10878
▁litauen	-10879
▁förknipp	-10880
▁förhandlings	-10881
▁warrant	-10882
▁begränsar	-10883
▁unanimity	-10884
▁tillfälligt	-10885
▁medborgarskap	-10886
▁sarko	-10887
▁skott	-10888
▁noggrann	-10889
▁replaced	-10890
▁distinction	-10891
amer	-10892
▁bif	-10893
▁lyssnat	-10894
▁marocko	-10895
▁profess	-10896
▁medierna	-10897
▁insatserna	-10898
problem	-10899
▁misstro	-10900
▁normalt	-10901
▁arbit	-10902
▁uphold	-10903
▁turkeys	-10904
▁flygplan	-10905
▁bristfäll	-10906
ugo	-10907
▁fuels	-10908
▁managing	-10909
▁hanteringen	-10910
▁dum	-10911
tterm	-10912
▁grönboken	-10913
▁shortterm	-10914
▁husse	-10915
äckande	-10916
▁termer	-10917
innande	-10918
▁fotboll	-10919
▁rysslands	-10920
▁industrifrågor	-10921
country	-10922
▁missing	-10923
▁pressen	-10924
▁connected	-10925
▁legitimitet	-10926
lägga	-10927
▁begun	-10928
▁numnumec	-10929
▁samtycke	-10930
▁dur	-10931
▁tryck	-10932
▁invite	-10933
▁tendens	-10934
▁naturliga	-10935
▁träd	-10936
▁hände	-10937
▁utvidgas	-10938
▁fossil	-10939
▁diverse	-10940
▁förbudet	-10941
▁procedural	-10942
▁controversial	-10943
▁riktig	-10944
▁contributing	-10945
▁föreskrifter	-10946
chet	-10947
skar	-10948
ören	-10949
▁sevent	-10950
▁categories	-10951
▁resistance	-10952
▁flytta	-10953
▁desirable	-10954
▁palestina	-10955
▁uppenbara	-10956
▁bruk	-10957
orening	-10958
▁barnier	-10959
▁omstrukturering	-10960
▁euratom	-10961
▁oacceptabla	-10962
▁universities	-10963
▁ordningsfråga	-10964
eckien	-10965
▁plays	-10966
▁valda	-10967
▁foster	-10968
▁proven	-10969
▁mandatory	-10970
▁vidtagits	-10971
dens	-10972
valet	-10973
▁arch	-10974
▁gamm	-10975
angers	-10976
▁budgetåret	-10977
▁mervärdess	-10978
▁riktningen	-10979
▁systematiskt	-10980
ony	-10981
▁välbef	-10982
▁avsevärda	-10983
▁investors	-10984
▁permitted	-10985
▁ömsesidiga	-10986
alys	-10987
▁enshr	-10988
▁rubrik	-10989
▁signing	-10990
▁directed	-10991
▁inhemska	-10992
▁threatened	-10993
▁lacking	-10994
▁regimes	-10995
liferation	-10996
▁kunskaper	-10997
▁nar	-10998
riska	-10999
▁föröd	-11000
▁resumed	-11001
▁highlights	-11002
▁intresserade	-11003
mans	-11004
▁livs	-11005
▁victim	-11006
▁betalas	-11007
▁konstruktivt	-11008
▁försk	-11009
▁distingu	-11010
▁consulted	-11011
▁chur	-11012
▁löns	-11013
▁destabil	-11014
▁blue	-11015
▁gynns	-11016
respect	-11017
▁använt	-11018
▁energim	-11019
▁lärande	-11020
▁återspeglar	-11021
agens	-11022
▁brid	-11023
ountain	-11024
▁rimlig	-11025
▁harmoni	-11026
▁beslutar	-11027
▁kostnaden	-11028
▁reconciliation	-11029
obr	-11030
▁brev	-11031
handeln	-11032
intress	-11033
▁auktor	-11034
▁medier	-11035
▁admitted	-11036
▁followup	-11037
▁nio	-11038
▁hell	-11039
▁resource	-11040
ugoslavien	-11041
▁verkställ	-11042
iled	-11043
unde	-11044
▁klokt	-11045
marknad	-11046
▁skälen	-11047
▁innovativa	-11048
▁generaldirektor	-11049
ibly	-11050
▁röra	-11051
gången	-11052
▁tender	-11053
▁anpassas	-11054
▁estimated	-11055
▁lagstiftande	-11056
ude	-11057
aler	-11058
▁grä	-11059
▁alle	-11060
▁rela	-11061
▁funded	-11062
▁fleråriga	-11063
▁direktiven	-11064
▁individuella	-11065
▁characteristics	-11066
▁yourself	-11067
▁befolknings	-11068
▁observations	-11069
▁konstitutions	-11070
rating	-11071
äderna	-11072
▁cease	-11073
changes	-11074
▁anslagen	-11075
▁mountain	-11076
▁integrity	-11077
▁skogs	-11078
▁online	-11079
▁pharma	-11080
▁förenkl	-11081
▁överras	-11082
▁defining	-11083
▁inskränk	-11084
▁gis	-11085
▁concession	-11086
▁förenkling	-11087
▁förhållandet	-11088
▁överträdelser	-11089
nens	-11090
▁korrig	-11091
sbistånd	-11092
▁scrutiny	-11093
▁förflutna	-11094
▁fördelning	-11095
▁interventions	-11096
▁vänst	-11097
▁notably	-11098
▁rådsord	-11099
▁acceptance	-11100
point	-11101
▁webb	-11102
▁hölls	-11103
villkoren	-11104
▁slightly	-11105
▁grip	-11106
ivande	-11107
▁baron	-11108
▁omför	-11109
▁bryter	-11110
▁licens	-11111
▁uppdat	-11112
▁fifteen	-11113
▁confusion	-11114
▁forgotten	-11115
▁prostitution	-11116
▁språ	-11117
▁syda	-11118
▁biobr	-11119
▁fires	-11120
▁flows	-11121
▁krävt	-11122
▁manif	-11123
▁imported	-11124
▁palestine	-11125
▁systematic	-11126
▁nong	-11127
▁cofin	-11128
▁erasm	-11129
▁avbröt	-11130
▁skadar	-11131
▁failing	-11132
▁dramatic	-11133
rotokollet	-11134
▁outermost	-11135
▁residence	-11136
▁liberalisering	-11137
▁myndigheternas	-11138
▁erika	-11139
▁tänkt	-11140
▁banned	-11141
▁förtryck	-11142
▁brasilien	-11143
.,	-11144
▁utlo	-11145
integr	-11146
▁dispar	-11147
▁innehålla	-11148
▁assessments	-11149
▁sar	-11150
ros	-11151
▁hä	-11152
abet	-11153
▁raises	-11154
▁cultures	-11155
▁reported	-11156
▁förklarat	-11157
▁drast	-11158
ophobia	-11159
▁hälsan	-11160
▁orättvis	-11161
▁providers	-11162
▁förekommit	-11163
▁övergången	-11164
▁nine	-11165
▁organic	-11166
▁refugee	-11167
nde	-11168
▁fat	-11169
arians	-11170
▁sales	-11171
amlingen	-11172
▁logical	-11173
anger	-11174
▁pain	-11175
▁hoped	-11176
▁massa	-11177
▁minute	-11178
igation	-11179
▁scenar	-11180
stillstånd	-11181
▁instrumentet	-11182
▁stakeholders	-11183
det	-11184
rew	-11185
pnade	-11186
▁recyc	-11187
▁worthy	-11188
▁appointment	-11189
uivalent	-11190
▁refused	-11191
▁inbegriper	-11192
▁ons	-11193
istent	-11194
▁adverse	-11195
▁observe	-11196
▁kontrakt	-11197
apse	-11198
embow	-11199
endom	-11200
▁dras	-11201
▁lans	-11202
▁infört	-11203
▁orsaka	-11204
▁showed	-11205
▁accounting	-11206
▁fullständiga	-11207
tered	-11208
▁berörs	-11209
▁surrounding	-11210
pon	-11211
ibel	-11212
ires	-11213
▁trip	-11214
▁erasmus	-11215
▁förvand	-11216
▁reductions	-11217
▁kommunikations	-11218
▁funktionshinder	-11219
togs	-11220
förhåll	-11221
▁intrycket	-11222
▁återvin	-11223
▁infringement	-11224
▁tillhandahåller	-11225
▁nut	-11226
▁förse	-11227
▁intryck	-11228
▁främling	-11229
▁slutföra	-11230
▁tekniken	-11231
▁preventive	-11232
▁modernisation	-11233
▁mai	-11234
▁forskare	-11235
▁nationellt	-11236
▁bestämmelse	-11237
▁achievements	-11238
▁ratificering	-11239
▁vetenskaplig	-11240
▁känslig	-11241
▁nationer	-11242
▁constra	-11243
▁fullbord	-11244
▁godkännas	-11245
▁fastställt	-11246
via	-11247
▁ratify	-11248
▁advanced	-11249
▁handlade	-11250
soever	-11251
▁abroad	-11252
▁ingred	-11253
▁controlled	-11254
▁förklarade	-11255
▁underlying	-11256
▁rättssäkerhet	-11257
itals	-11258
▁hast	-11259
▁listening	-11260
usen	-11261
proble	-11262
▁sämre	-11263
ingarna	-11264
▁distributed	-11265
▁presidenten	-11266
▁utbildningen	-11267
▁ee	-11268
▁löst	-11269
▁träder	-11270
▁austral	-11271
▁euländer	-11272
▁komb	-11273
▁aspekten	-11274
▁regularly	-11275
iel	-11276
▁disreg	-11277
▁mental	-11278
▁redovis	-11279
▁ansluter	-11280
▁konkurrera	-11281
▁ice	-11282
▁postal	-11283
▁socioeconomic	-11284
▁dröm	-11285
▁mistakes	-11286
▁reporting	-11287
▁eventually	-11288
kost	-11289
▁klarg	-11290
▁styra	-11291
▁bilaga	-11292
▁approaches	-11293
▁repression	-11294
▁demografiska	-11295
itably	-11296
▁brand	-11297
▁olämp	-11298
▁etiska	-11299
▁cnumnum	-11300
▁terrorister	-11301
riget	-11302
anderätt	-11303
▁dry	-11304
▁knut	-11305
▁wats	-11306
▁fråge	-11307
▁older	-11308
▁krimin	-11309
▁losing	-11310
▁ilo	-11311
▁gall	-11312
▁carri	-11313
▁match	-11314
▁anspråk	-11315
▁mainstream	-11316
▁whatsoever	-11317
▁världssamfundet	-11318
▁fasc	-11319
▁scot	-11320
▁airport	-11321
ländernas	-11322
▁advocate	-11323
▁moldavien	-11324
▁observers	-11325
▁återuppbyggnad	-11326
opro	-11327
äver	-11328
▁kong	-11329
▁digit	-11330
▁likas	-11331
▁ambitiös	-11332
▁kombination	-11333
öns	-11334
ydigt	-11335
itored	-11336
▁levande	-11337
▁bibehålla	-11338
▁identifiera	-11339
▁delas	-11340
▁crimin	-11341
▁helpful	-11342
▁integritet	-11343
▁transaktioner	-11344
änger	-11345
▁fiskare	-11346
icket	-11347
▁gulf	-11348
▁devast	-11349
▁movements	-11350
respon	-11351
▁maybe	-11352
▁annivers	-11353
crif	-11354
▁ase	-11355
▁unit	-11356
▁aspir	-11357
▁deltagit	-11358
▁producer	-11359
▁hundratals	-11360
▁poettering	-11361
▁precaution	-11362
▁värdefulla	-11363
tids	-11364
▁fyr	-11365
▁ring	-11366
▁släpp	-11367
▁offentligg	-11368
eken	-11369
▁innoc	-11370
enheten	-11371
▁football	-11372
▁balanserat	-11373
▁compromises	-11374
▁kompromisser	-11375
▁representing	-11376
down	-11377
prid	-11378
nesday	-11379
▁återin	-11380
ologiskt	-11381
▁kritisk	-11382
uately	-11383
▁banker	-11384
▁possel	-11385
▁sårbara	-11386
▁kortsikt	-11387
▁wednesday	-11388
▁apparently	-11389
▁comparison	-11390
▁enhällighet	-11391
▁gir	-11392
▁berl	-11393
▁eldr	-11394
hållas	-11395
▁föras	-11396
▁inside	-11397
▁facility	-11398
▁inhabitants	-11399
▁continuation	-11400
▁nav	-11401
inkom	-11402
▁givit	-11403
▁löper	-11404
▁oklar	-11405
▁omsorg	-11406
▁åtanke	-11407
▁safeguarding	-11408
▁medlemsstaters	-11409
ero	-11410
ery	-11411
▁impetus	-11412
▁uteslutande	-11413
▁prete	-11414
▁normala	-11415
▁meningen	-11416
förfarande	-11417
urisdiction	-11418
▁marknadsför	-11419
▁välbefinnande	-11420
kat	-11421
▁oeg	-11422
▁robert	-11423
▁laeken	-11424
▁specifik	-11425
▁monitored	-11426
▁spridning	-11427
▁näringslivet	-11428
emynd	-11429
▁greens	-11430
▁assurance	-11431
▁accountability	-11432
▁varning	-11433
▁recession	-11434
▁handelsför	-11435
tur	-11436
▁ts	-11437
▁drive	-11438
▁disputes	-11439
celer	-11440
▁hyck	-11441
▁upplys	-11442
▁ställts	-11443
▁produktiv	-11444
▁arbetsgrupp	-11445
▁restrictive	-11446
▁folkpartiets	-11447
▁mä	-11448
▁gest	-11449
utical	-11450
▁överl	-11451
▁hundred	-11452
▁contrast	-11453
▁investigations	-11454
sreg	-11455
▁iii	-11456
rafik	-11457
kraftt	-11458
▁enskild	-11459
ustification	-11460
▁stöds	-11461
▁touch	-11462
pertise	-11463
▁använts	-11464
▁destroyed	-11465
▁historiskt	-11466
▁omedelbara	-11467
▁anniversary	-11468
▁nedskärningar	-11469
▁representerar	-11470
know	-11471
▁plöts	-11472
lements	-11473
▁sacrif	-11474
▁avregleringen	-11475
rep	-11476
grad	-11477
▁ifrågasätta	-11478
ctic	-11479
▁anti	-11480
▁vene	-11481
▁ikraftt	-11482
▁uppbygg	-11483
▁enhetliga	-11484
▁producera	-11485
ico	-11486
ygien	-11487
▁mond	-11488
eeping	-11489
▁privacy	-11490
▁förbättrad	-11491
▁infrastructures	-11492
sfient	-11493
verkar	-11494
▁fails	-11495
laktigt	-11496
▁occupation	-11497
▁iv	-11498
ammer	-11499
▁trodde	-11500
▁acceler	-11501
▁livslång	-11502
åtgärderna	-11503
▁stringent	-11504
hen	-11505
iske	-11506
▁depr	-11507
▁sadly	-11508
▁embargo	-11509
periences	-11510
▁kulturell	-11511
▁halt	-11512
▁asser	-11513
▁bench	-11514
▁godkändes	-11515
▁kärnkraftverk	-11516
ancy	-11517
▁signs	-11518
ikanska	-11519
▁engine	-11520
▁svårigheterna	-11521
bi	-11522
vägar	-11523
▁covering	-11524
▁kollektiva	-11525
▁cyn	-11526
tning	-11527
▁elig	-11528
▁tveks	-11529
▁abuses	-11530
▁godtar	-11531
pher	-11532
▁feas	-11533
▁utarbetats	-11534
▁preliminary	-11535
▁förhoppningar	-11536
unk	-11537
▁forese	-11538
▁withdrawal	-11539
▁consistency	-11540
▁participating	-11541
försam	-11542
▁error	-11543
▁passar	-11544
▁dossier	-11545
▁immunity	-11546
▁profound	-11547
▁tolerance	-11548
▁mörd	-11549
▁confer	-11550
▁komplet	-11551
▁muslims	-11552
▁sentence	-11553
▁envisaged	-11554
▁kvinnornas	-11555
play	-11556
uset	-11557
▁rely	-11558
▁assets	-11559
▁folken	-11560
▁wholehear	-11561
tio	-11562
ndag	-11563
▁wars	-11564
▁utförs	-11565
▁baroness	-11566
▁friheterna	-11567
seffekter	-11568
▁kulturen	-11569
▁regleras	-11570
▁ursprungs	-11571
▁concentration	-11572
▁die	-11573
▁offices	-11574
▁tvingar	-11575
▁concludes	-11576
▁ömsesidig	-11577
▁starta	-11578
▁manifest	-11579
▁tunisien	-11580
uries	-11581
▁wages	-11582
▁ageing	-11583
▁syften	-11584
▁analysera	-11585
▁aktiviteter	-11586
ior	-11587
▁kär	-11588
bilar	-11589
▁tung	-11590
▁shipp	-11591
▁krävde	-11592
▁libyen	-11593
▁sudden	-11594
▁återställa	-11595
skampan	-11596
▁oegent	-11597
▁philos	-11598
▁tunisia	-11599
▁beteende	-11600
▁underrätt	-11601
▁conviction	-11602
▁heltäckande	-11603
asien	-11604
▁pipel	-11605
▁initially	-11606
konferensen	-11607
▁bolkestein	-11608
▁fruktansvärda	-11609
▁klyft	-11610
▁female	-11611
▁integrate	-11612
▁beslutsfattande	-11613
east	-11614
lott	-11615
▁bly	-11616
version	-11617
▁missbru	-11618
▁kollegan	-11619
▁betalningar	-11620
bred	-11621
known	-11622
▁scar	-11623
förbud	-11624
▁foder	-11625
▁godty	-11626
▁reaff	-11627
▁försäk	-11628
▁likaså	-11629
▁humanity	-11630
▁ambitiöst	-11631
▁begränsat	-11632
▁föräldrar	-11633
▁containing	-11634
oles	-11635
▁drog	-11636
▁guid	-11637
▁libya	-11638
▁phare	-11639
▁biståndet	-11640
▁övervaknings	-11641
▁hamna	-11642
▁looks	-11643
▁actors	-11644
▁riktas	-11645
▁energis	-11646
ministrarna	-11647
▁förbättrar	-11648
▁propaganda	-11649
ula	-11650
inen	-11651
värm	-11652
ulated	-11653
▁liked	-11654
▁train	-11655
akta	-11656
onen	-11657
▁bortse	-11658
utskottets	-11659
▁partnerships	-11660
▁avrätt	-11661
▁inriktas	-11662
ssamhället	-11663
▁accepting	-11664
▁rambeslut	-11665
▁anm	-11666
appropri	-11667
skäl	-11668
▁conve	-11669
▁täcka	-11670
▁england	-11671
ssäkerheten	-11672
▁safeguards	-11673
rud	-11674
▁biofuels	-11675
▁kontinuer	-11676
▁consolidation	-11677
anc	-11678
▁gmos	-11679
▁impris	-11680
▁illusion	-11681
▁stabilisering	-11682
▁gained	-11683
▁kontor	-11684
▁skrivel	-11685
▁convince	-11686
▁övervinna	-11687
▁nongovernmental	-11688
▁ped	-11689
▁dubbla	-11690
▁voters	-11691
▁frågestunden	-11692
asion	-11693
änsted	-11694
▁absor	-11695
▁avsikten	-11696
▁offentliggör	-11697
möten	-11698
ocratic	-11699
▁interf	-11700
▁flertal	-11701
atastroph	-11702
▁autonomy	-11703
▁humanitär	-11704
▁aldegruppen	-11705
yrån	-11706
▁gilt	-11707
▁betonade	-11708
▁önskvärt	-11709
▁confident	-11710
▁catastroph	-11711
▁strategiskt	-11712
▁utsläppsrätter	-11713
attform	-11714
▁reaffir	-11715
ningssätt	-11716
▁hänvisade	-11717
hm	-11718
▁kid	-11719
▁tåg	-11720
▁slakt	-11721
▁models	-11722
▁missgyn	-11723
▁thirdcountry	-11724
▁felaktigt	-11725
▁resolving	-11726
▁selfemploy	-11727
erusal	-11728
▁trace	-11729
▁brutal	-11730
▁lagliga	-11731
▁minskas	-11732
▁suggests	-11733
▁cather	-11734
▁studie	-11735
erusalem	-11736
▁founded	-11737
thusgaser	-11738
▁scientists	-11739
▁statistical	-11740
▁vägtransport	-11741
stid	-11742
▁film	-11743
▁poäng	-11744
▁fonder	-11745
▁dangers	-11746
▁catherine	-11747
▁förnuftigt	-11748
inar	-11749
▁döda	-11750
använd	-11751
▁prere	-11752
▁stages	-11753
▁usually	-11754
▁avsikter	-11755
▁criminals	-11756
▁paragraphs	-11757
▁öppenheten	-11758
▁otillräckliga	-11759
ckan	-11760
plant	-11761
bidrag	-11762
▁solved	-11763
▁försvars	-11764
▁förmiddag	-11765
▁budgetpost	-11766
▁rådgivande	-11767
▁diplomatiska	-11768
▁nödvändigtvis	-11769
▁trou	-11770
ashion	-11771
▁burdens	-11772
▁falling	-11773
▁betänkandets	-11774
▁bag	-11775
▁nit	-11776
▁hosp	-11777
▁inlett	-11778
▁artific	-11779
▁valkrets	-11780
▁hänseende	-11781
▁anställning	-11782
▁asylsökande	-11783
organisationerna	-11784
▁arter	-11785
▁presidiet	-11786
beit	-11787
lagt	-11788
▁hour	-11789
▁util	-11790
▁houses	-11791
▁ignored	-11792
▁omarbet	-11793
▁opinionen	-11794
▁finanskrisen	-11795
▁registration	-11796
erb	-11797
▁geno	-11798
föring	-11799
▁woman	-11800
▁finish	-11801
▁augusti	-11802
▁storage	-11803
▁answered	-11804
▁flygplatser	-11805
▁kry	-11806
antly	-11807
enance	-11808
▁indis	-11809
▁notes	-11810
▁university	-11811
▁producenterna	-11812
▁cope	-11813
▁lebanon	-11814
▁fortunately	-11815
▁konstruktiv	-11816
▁främlingsfient	-11817
▁scre	-11818
▁wtos	-11819
▁fears	-11820
▁trösk	-11821
▁luftrum	-11822
▁meantime	-11823
▁utro	-11824
▁anför	-11825
▁false	-11826
▁betonat	-11827
▁consent	-11828
▁cutting	-11829
▁budskapet	-11830
▁integreras	-11831
andard	-11832
▁names	-11833
▁erinra	-11834
periment	-11835
▁pursuing	-11836
sländernas	-11837
▁recognises	-11838
▁guenglgruppen	-11839
▁territoriella	-11840
usp	-11841
ardous	-11842
etting	-11843
vation	-11844
▁oppon	-11845
▁talib	-11846
idential	-11847
▁acknowledged	-11848
▁consultations	-11849
▁violent	-11850
owald	-11851
utvecklingen	-11852
▁incorporate	-11853
▁kontroversi	-11854
▁nap	-11855
▁allas	-11856
▁tankar	-11857
▁detention	-11858
▁förstärkt	-11859
▁ratificera	-11860
▁ferrerowald	-11861
▁anläggningar	-11862
▁borts	-11863
▁albeit	-11864
▁egendom	-11865
▁libanon	-11866
▁incentive	-11867
uy	-11868
▁pragm	-11869
▁kyotop	-11870
nerligen	-11871
▁employed	-11872
▁fourthly	-11873
umn	-11874
cape	-11875
iast	-11876
itativa	-11877
▁inträffar	-11878
▁konsumentfrågor	-11879
▁diss	-11880
▁neglect	-11881
▁denied	-11882
▁outlined	-11883
▁samhälls	-11884
▁livslångt	-11885
▁kompensation	-11886
▁nyhet	-11887
▁delarna	-11888
▁gradual	-11889
▁antagande	-11890
▁vocational	-11891
bul	-11892
ället	-11893
▁dagliga	-11894
▁decline	-11895
▁intoler	-11896
▁klarhet	-11897
▁released	-11898
▁mandatperiod	-11899
cuse	-11900
▁tow	-11901
undna	-11902
▁oskyld	-11903
▁förbehåll	-11904
▁försiktiga	-11905
uv	-11906
▁ast	-11907
▁org	-11908
▁sites	-11909
▁skaffa	-11910
sperioden	-11911
▁pref	-11912
▁renewed	-11913
▁yttrandefrihet	-11914
▁ör	-11915
▁sri	-11916
▁died	-11917
▁istället	-11918
▁representanter	-11919
namo	-11920
▁smo	-11921
ördes	-11922
▁badly	-11923
▁david	-11924
▁benchmark	-11925
▁rob	-11926
▁orim	-11927
astrous	-11928
▁emphasi	-11929
▁plenars	-11930
▁entering	-11931
▁medvetet	-11932
▁disastrous	-11933
▁sör	-11934
▁satsa	-11935
förvalt	-11936
▁finger	-11937
▁mother	-11938
▁förkasta	-11939
pack	-11940
tare	-11941
▁sight	-11942
ställer	-11943
ökningar	-11944
▁bankerna	-11945
▁bestämda	-11946
▁siffrorna	-11947
▁utarbetas	-11948
af	-11949
års	-11950
smedel	-11951
▁conven	-11952
▁tonight	-11953
▁samhällets	-11954
▁lyckligtvis	-11955
▁försvarspolitik	-11956
▁helps	-11957
▁dragit	-11958
▁disregard	-11959
▁planen	-11960
▁inbördes	-11961
▁numnumcns	-11962
▁utvecklats	-11963
▁aktör	-11964
▁invited	-11965
▁wallström	-11966
▁skillnaden	-11967
▁stabilisation	-11968
▁nep	-11969
▁iron	-11970
▁hundra	-11971
▁motsatt	-11972
▁visible	-11973
▁byggnader	-11974
▁functions	-11975
▁omfattningen	-11976
▁veto	-11977
▁decenn	-11978
▁nötkött	-11979
▁partierna	-11980
iskriminering	-11981
▁igc	-11982
▁kostar	-11983
slås	-11984
▁paul	-11985
företagen	-11986
uit	-11987
▁variety	-11988
▁focusing	-11989
▁enhetligt	-11990
▁uppmanade	-11991
▁framgångar	-11992
▁geop	-11993
alling	-11994
▁spekul	-11995
▁prestige	-11996
▁reciproc	-11997
▁inträffade	-11998
▁säkerhetsråd	-11999
▁gn	-12000
▁sei	-12001
ernob	-12002
▁lukas	-12003
▁marked	-12004
▁livskval	-12005
▁sammanträden	-12006
mun	-12007
▁lärdom	-12008
▁bedriver	-12009
▁troligen	-12010
▁uppskatta	-12011
▁modernisering	-12012
eds	-12013
▁backing	-12014
▁besvikelse	-12015
▁sannerligen	-12016
visar	-12017
▁usas	-12018
▁cooper	-12019
nb	-12020
rain	-12021
▁hes	-12022
amining	-12023
▁sports	-12024
▁insistera	-12025
▁tidpunkten	-12026
▁komplettera	-12027
iten	-12028
▁andelen	-12029
▁ansökan	-12030
▁noterat	-12031
▁försvinner	-12032
▁macroeconomic	-12033
▁nond	-12034
bolagen	-12035
ernobyl	-12036
▁militar	-12037
▁irrespon	-12038
▁aktörerna	-12039
▁composition	-12040
ev	-12041
spaket	-12042
▁vertsal	-12043
▁bestånds	-12044
▁officiellt	-12045
inär	-12046
urens	-12047
▁leks	-12048
▁maint	-12049
reaching	-12050
▁endorsed	-12051
▁oroväckande	-12052
▁instrumenten	-12053
▁peri	-12054
▁putin	-12055
▁arrive	-12056
▁clauses	-12057
▁inledas	-12058
▁learned	-12059
erability	-12060
▁integrerade	-12061
▁förvaltnings	-12062
▁utformningen	-12063
▁tamp	-12064
▁hotas	-12065
▁posselt	-12066
idutsläppen	-12067
▁simplified	-12068
icing	-12069
▁visited	-12070
ournalist	-12071
▁forecast	-12072
▁bevarande	-12073
▁maintenance	-12074
haust	-12075
▁kongo	-12076
epolitik	-12077
▁precautionary	-12078
yp	-12079
ifta	-12080
▁erkänns	-12081
ole	-12082
▁skö	-12083
▁förr	-12084
▁avvik	-12085
borgare	-12086
▁pluralism	-12087
▁pose	-12088
▁åtal	-12089
europeiska	-12090
▁disabilities	-12091
▁gift	-12092
uisite	-12093
▁peter	-12094
▁features	-12095
▁sections	-12096
▁brottmåls	-12097
▁ordningen	-12098
▁grannländer	-12099
▁förseningar	-12100
▁presidential	-12101
▁argue	-12102
▁guinea	-12103
▁mottagit	-12104
▁vänstern	-12105
▁målsättningen	-12106
una	-12107
▁ceiling	-12108
▁redskap	-12109
▁everywhere	-12110
▁utvärderingen	-12111
▁syria	-12112
▁watson	-12113
▁sympathy	-12114
▁öde	-12115
uiring	-12116
▁tuber	-12117
▁parlamentarisk	-12118
▁hi	-12119
▁framt	-12120
▁ecofin	-12121
dokument	-12122
respective	-12123
▁förklaringen	-12124
procent	-12125
▁turist	-12126
arknaden	-12127
▁dismant	-12128
▁perfekt	-12129
rättigheter	-12130
▁irrespective	-12131
▁obligatorisk	-12132
▁uppskattning	-12133
▁skolor	-12134
▁slaugh	-12135
▁polisen	-12136
▁sincere	-12137
▁genast	-12138
▁smooth	-12139
▁syrien	-12140
▁inspection	-12141
▁corresponding	-12142
erion	-12143
▁missför	-12144
▁criterion	-12145
▁föreliggande	-12146
ensk	-12147
union	-12148
▁morse	-12149
▁påtving	-12150
▁collapse	-12151
▁ineffektiv	-12152
▁likvärd	-12153
▁recital	-12154
▁förstärkning	-12155
▁sell	-12156
▁reding	-12157
▁enables	-12158
▁inletts	-12159
▁digitala	-12160
▁överträdelse	-12161
how	-12162
ofi	-12163
▁acted	-12164
emption	-12165
▁nyheter	-12166
▁kriminal	-12167
▁lärt	-12168
▁morgond	-12169
▁personnel	-12170
pin	-12171
▁sale	-12172
▁lingu	-12173
▁romer	-12174
▁monday	-12175
▁utbred	-12176
▁världsk	-12177
▁bot	-12178
▁borne	-12179
▁räkenskap	-12180
▁straffrättsliga	-12181
uscon	-12182
ringen	-12183
▁indication	-12184
▁stal	-12185
▁surpl	-12186
splanen	-12187
▁drivkraft	-12188
▁fundamentally	-12189
▁koncentration	-12190
▁uppnåd	-12191
▁citerar	-12192
▁säkrare	-12193
▁evaluate	-12194
▁ifrågasätter	-12195
pair	-12196
nbend	-12197
▁game	-12198
▁pekar	-12199
▁öppnar	-12200
▁cohnbend	-12201
▁turismen	-12202
▁vertsale	-12203
iscrimination	-12204
▁apolog	-12205
▁enforce	-12206
▁essence	-12207
▁kosovos	-12208
▁bortsett	-12209
rol	-12210
▁utg	-12211
▁illa	-12212
ceutical	-12213
▁philosoph	-12214
▁kinas	-12215
▁vigil	-12216
▁ingrip	-12217
▁flights	-12218
▁upphäva	-12219
ministrar	-12220
▁corporate	-12221
emen	-12222
oring	-12223
energi	-12224
▁attra	-12225
▁leaves	-12226
▁avslutas	-12227
▁scenario	-12228
▁appointed	-12229
▁berluscon	-12230
▁automatiskt	-12231
bod	-12232
roll	-12233
whel	-12234
▁reserves	-12235
▁depl	-12236
▁reim	-12237
lemmar	-12238
▁antis	-12239
▁svaga	-12240
▁rädsla	-12241
▁uppvärm	-12242
imp	-12243
▁trem	-12244
beford	-12245
▁corner	-12246
▁fäster	-12247
▁shipping	-12248
▁immunitet	-12249
▁virtually	-12250
▁informella	-12251
▁marks	-12252
▁komnum	-12253
▁avoided	-12254
▁dödsfall	-12255
▁reserver	-12256
ohannesburg	-12257
▁productive	-12258
▁restriktioner	-12259
▁övervakningen	-12260
▁poss	-12261
▁overwhel	-12262
▁patienter	-12263
▁berättigade	-12264
▁conservative	-12265
▁substantially	-12266
ho	-12267
▁ku	-12268
nder	-12269
▁numnumeeg	-12270
endly	-12271
inent	-12272
▁uppfin	-12273
▁farreaching	-12274
▁programming	-12275
▁productivity	-12276
ceg	-12277
▁gill	-12278
embowski	-12279
▁schedul	-12280
▁consistently	-12281
▁ferrerowaldner	-12282
▁cow	-12283
▁höst	-12284
▁metoden	-12285
▁patents	-12286
▁wherever	-12287
▁fackfören	-12288
▁komplicerad	-12289
▁pharmaceutical	-12290
▁arv	-12291
kniken	-12292
▁floods	-12293
▁fångst	-12294
▁arrived	-12295
▁vertsalegruppen	-12296
▁flott	-12297
▁reformp	-12298
▁inblandning	-12299
▁demokratisering	-12300
urellt	-12301
▁stärkas	-12302
▁operativa	-12303
▁ownership	-12304
▁completion	-12305
▁fastställas	-12306
rans	-12307
▁mask	-12308
skyddet	-12309
▁deklar	-12310
▁damaging	-12311
▁kvoter	-12312
rocessen	-12313
▁platform	-12314
▁responses	-12315
öte	-12316
▁vist	-12317
▁eftert	-12318
budgeten	-12319
▁utkastet	-12320
mekanismer	-12321
▁numnumeec	-12322
▁democratisation	-12323
kny	-12324
▁wast	-12325
▁meets	-12326
▁accused	-12327
▁bakgrunden	-12328
▁recommended	-12329
▁betydelsefullt	-12330
erland	-12331
▁lists	-12332
▁retire	-12333
▁osce	-12334
▁tragedi	-12335
▁presents	-12336
▁irregularities	-12337
utor	-12338
▁speg	-12339
▁chile	-12340
▁memor	-12341
▁storlek	-12342
▁announcement	-12343
diers	-12344
▁innebar	-12345
▁ledarna	-12346
ktar	-12347
ordb	-12348
▁notion	-12349
▁taliban	-12350
▁egenföretag	-12351
aks	-12352
▁sums	-12353
▁åklag	-12354
▁donors	-12355
▁införlivas	-12356
▁budgetramen	-12357
▁devis	-12358
▁recru	-12359
▁story	-12360
komligt	-12361
▁stänga	-12362
▁täcker	-12363
▁devoted	-12364
▁earmark	-12365
▁somalia	-12366
▁ändrade	-12367
▁korrekta	-12368
▁enterprise	-12369
▁researchers	-12370
▁offic	-12371
▁mänskligheten	-12372
ght	-12373
▁dap	-12374
▁congo	-12375
▁rigorous	-12376
▁styrelse	-12377
▁treparts	-12378
▁inrättande	-12379
▁traditioner	-12380
▁generationer	-12381
▁brukar	-12382
▁enheter	-12383
▁testing	-12384
▁effekten	-12385
▁misunder	-12386
▁avskaffas	-12387
▁kritisera	-12388
▁selfemployed	-12389
ården	-12390
▁enat	-12391
centrum	-12392
▁autumn	-12393
idutsläpp	-12394
▁pensioner	-12395
▁definitive	-12396
▁imperative	-12397
▁fate	-12398
▁horm	-12399
▁godtyck	-12400
▁mängder	-12401
▁amerikanerna	-12402
▁investeringarna	-12403
▁hyd	-12404
metoden	-12405
▁nordir	-12406
plicitly	-12407
▁månaden	-12408
▁inappropri	-12409
vy	-12410
bri	-12411
▁fastställdes	-12412
car	-12413
▁ken	-12414
▁källa	-12415
▁laying	-12416
▁steget	-12417
▁struck	-12418
▁display	-12419
▁ändringen	-12420
▁ändamålsen	-12421
▁oacceptabel	-12422
▁valde	-12423
▁volume	-12424
▁emerged	-12425
▁tackled	-12426
▁eumedborgarnas	-12427
lagen	-12428
▁ensured	-12429
▁seekers	-12430
▁överväger	-12431
▁komplicerat	-12432
▁mervärdesskatt	-12433
udici	-12434
▁hygien	-12435
▁väsentlig	-12436
▁democratically	-12437
ani	-12438
weg	-12439
▁bom	-12440
▁gear	-12441
▁uses	-12442
▁läser	-12443
▁lätta	-12444
▁oomen	-12445
ationerna	-12446
▁koppling	-12447
▁inkludera	-12448
▁underteckna	-12449
älpt	-12450
▁label	-12451
▁tobaks	-12452
▁påpekar	-12453
▁engagerade	-12454
▁konsekvensbedöm	-12455
gäng	-12456
▁nås	-12457
racies	-12458
▁remar	-12459
▁daphne	-12460
▁encoun	-12461
▁adapted	-12462
▁attityd	-12463
sområdena	-12464
spolitiska	-12465
▁kontinenten	-12466
fon	-12467
skt	-12468
▁fam	-12469
krisen	-12470
▁larges	-12471
▁spelat	-12472
▁soldiers	-12473
ben	-12474
▁gh	-12475
▁pays	-12476
▁uran	-12477
▁unpre	-12478
▁recycling	-12479
▁artiklarna	-12480
▁ingripande	-12481
▁representanten	-12482
▁mep	-12483
▁unc	-12484
olved	-12485
▁incred	-12486
▁sänder	-12487
▁satisfy	-12488
▁seventh	-12489
▁plenarsammant	-12490
▁mort	-12491
▁införts	-12492
▁student	-12493
▁socially	-12494
▁transform	-12495
ori	-12496
phere	-12497
▁pled	-12498
▁hotet	-12499
▁fought	-12500
▁lom	-12501
▁ompr	-12502
▁sham	-12503
ordbäv	-12504
▁icked	-12505
▁bottom	-12506
▁professor	-12507
▁demokrater	-12508
▁participants	-12509
ödor	-12510
andem	-12511
▁kore	-12512
▁eniga	-12513
▁comnum	-12514
▁margin	-12515
friendly	-12516
▁fashion	-12517
ploit	-12518
▁homes	-12519
▁fiskef	-12520
▁romerna	-12521
uct	-12522
nivån	-12523
▁grand	-12524
egovina	-12525
▁intera	-12526
▁pestic	-12527
▁vardag	-12528
material	-12529
▁årtionden	-12530
mitting	-12531
▁reperc	-12532
▁scotland	-12533
▁slutsats	-12534
▁småföretag	-12535
emplet	-12536
hållit	-12537
▁asean	-12538
▁repercussion	-12539
edd	-12540
ibil	-12541
▁draftsman	-12542
▁betydelsefulla	-12543
▁map	-12544
▁vitor	-12545
hållande	-12546
väsendet	-12547
▁alarming	-12548
▁harmonise	-12549
▁largescale	-12550
nä	-12551
ppar	-12552
ställda	-12553
oppmötet	-12554
▁embryon	-12555
▁läkemed	-12556
▁utförts	-12557
▁innocent	-12558
▁passager	-12559
▁europarådet	-12560
skåd	-12561
▁comit	-12562
▁defic	-12563
▁desired	-12564
▁riktiga	-12565
delningar	-12566
▁medverkan	-12567
▁diskuterats	-12568
▁hab	-12569
▁utläm	-12570
▁removal	-12571
▁deficits	-12572
▁bestående	-12573
▁delivered	-12574
▁löne	-12575
▁mast	-12576
ounded	-12577
▁föredrar	-12578
▁enshrined	-12579
▁repercussions	-12580
▁oh	-12581
emann	-12582
emplar	-12583
▁ändrar	-12584
▁observer	-12585
▁romanian	-12586
▁elektronisk	-12587
▁vidarebeford	-12588
sku	-12589
▁lopp	-12590
princip	-12591
▁bevitt	-12592
▁hussein	-12593
▁rapportera	-12594
▁oce	-12595
▁seat	-12596
endous	-12597
▁förstöra	-12598
▁klassific	-12599
▁kvinnliga	-12600
▁föreställa	-12601
igned	-12602
tedly	-12603
▁bära	-12604
▁deny	-12605
▁fördu	-12606
▁inddem	-12607
▁lyssnar	-12608
▁avseenden	-12609
onsum	-12610
▁biomet	-12611
▁manipul	-12612
▁attractive	-12613
▁pensioners	-12614
▁motståndare	-12615
nö	-12616
▁bist	-12617
▁ramar	-12618
▁förete	-12619
▁oomenru	-12620
▁missions	-12621
▁childrens	-12622
▁inspections	-12623
▁kreditvärder	-12624
slan	-12625
▁avväg	-12626
▁lyder	-12627
▁tribun	-12628
▁disciplin	-12629
▁förtydlig	-12630
▁relationer	-12631
▁investigate	-12632
▁dies	-12633
▁oroade	-12634
▁closing	-12635
▁component	-12636
rins	-12637
▁nul	-12638
force	-12639
öfarts	-12640
▁mugabe	-12641
▁biotechn	-12642
▁satellite	-12643
▁inevitably	-12644
▁värdefullt	-12645
▁begränsning	-12646
▁förteckning	-12647
ktions	-12648
▁löfte	-12649
▁anhäng	-12650
▁friday	-12651
▁frågade	-12652
▁bränslen	-12653
initiative	-12654
sgiv	-12655
▁perm	-12656
▁bearbet	-12657
▁vitboken	-12658
▁sammansättning	-12659
bbl	-12660
usa	-12661
▁coe	-12662
▁grave	-12663
▁insisterar	-12664
taget	-12665
▁tape	-12666
ernity	-12667
trafik	-12668
▁knappt	-12669
▁resort	-12670
▁silence	-12671
▁centralt	-12672
▁formella	-12673
▁debatterar	-12674
▁industriella	-12675
▁convey	-12676
▁surprise	-12677
betänkande	-12678
fördragets	-12679
▁originally	-12680
▁människorätts	-12681
omma	-12682
▁enats	-12683
cegovina	-12684
gifterna	-12685
▁oomenrui	-12686
▁biologisk	-12687
▁audiovisual	-12688
▁persecution	-12689
▁speculation	-12690
▁gon	-12691
▁broadly	-12692
▁enabled	-12693
▁detriment	-12694
▁transfers	-12695
▁dependence	-12696
▁institutionell	-12697
▁eventuell	-12698
▁ursprungligen	-12699
▁breda	-12700
▁twice	-12701
▁college	-12702
▁geograf	-12703
▁utestäng	-12704
rastruktur	-12705
▁disadvantaged	-12706
semin	-12707
ukhus	-12708
änsla	-12709
▁datab	-12710
▁numst	-12711
▁närmar	-12712
▁routes	-12713
▁attached	-12714
▁utomordentligt	-12715
ette	-12716
färda	-12717
ikanen	-12718
▁virus	-12719
sbudget	-12720
▁transferred	-12721
▁grym	-12722
▁distur	-12723
▁hållit	-12724
▁serves	-12725
▁estonia	-12726
▁kemiska	-12727
▁assessing	-12728
▁owninitiative	-12729
▁smart	-12730
▁steel	-12731
kapital	-12732
▁teleph	-12733
upgående	-12734
▁nuläget	-12735
▁numnumnum	-12736
▁församlingen	-12737
▁vent	-12738
▁vilsel	-12739
▁pragmat	-12740
▁distance	-12741
▁ordentlig	-12742
▁delaktighet	-12743
reser	-12744
valda	-12745
ulling	-12746
steknik	-12747
▁utövar	-12748
▁iranian	-12749
▁tydligen	-12750
▁consolidate	-12751
▁tyngd	-12752
▁beaktar	-12753
▁stimulans	-12754
▁studenter	-12755
▁ministerial	-12756
icter	-12757
▁invent	-12758
▁sahara	-12759
▁ärligt	-12760
▁versionen	-12761
▁comitology	-12762
▁foodstuffs	-12763
▁förändrats	-12764
▁linguistic	-12765
sförfaranden	-12766
▁anmäl	-12767
▁ekofin	-12768
pridning	-12769
▁kidnapp	-12770
▁rörelse	-12771
▁stricter	-12772
▁deadlines	-12773
▁fulfilled	-12774
▁förbereder	-12775
▁prat	-12776
▁hellre	-12777
sproblem	-12778
▁disagre	-12779
▁investing	-12780
▁cohnbendit	-12781
▁concessions	-12782
▁minds	-12783
▁errors	-12784
▁kärnan	-12785
▁radioa	-12786
▁infördes	-12787
▁upprepas	-12788
kis	-12789
▁bay	-12790
smålen	-12791
▁labor	-12792
▁christians	-12793
▁gränsvärden	-12794
▁practically	-12795
inn	-12796
▁malm	-12797
▁slaver	-12798
▁begärde	-12799
▁europam	-12800
ights	-12801
▁smär	-12802
utbyte	-12803
▁skrivit	-12804
▁granskas	-12805
kontroller	-12806
▁medlemmarna	-12807
▁ansvarsfullt	-12808
▁ef	-12809
▁lamy	-12810
styrkor	-12811
▁accurate	-12812
▁punishment	-12813
▁slutgiltiga	-12814
▁characterised	-12815
▁corbett	-12816
▁congress	-12817
▁pressing	-12818
▁arbetstid	-12819
▁utredning	-12820
▁återkomma	-12821
▁potentially	-12822
▁infrastrukturen	-12823
▁ov	-12824
▁dear	-12825
▁kart	-12826
▁webbpl	-12827
▁accepteras	-12828
▁adaptation	-12829
ckade	-12830
orden	-12831
viken	-12832
▁thir	-12833
▁logic	-12834
▁cultiv	-12835
▁gynnas	-12836
▁narrow	-12837
▁slutar	-12838
domstolens	-12839
▁protectionism	-12840
▁dispro	-12841
▁fattat	-12842
▁whenever	-12843
▁åstadkommit	-12844
▁wholeheartedly	-12845
▁internationally	-12846
åk	-12847
▁sträv	-12848
▁grants	-12849
spaketet	-12850
▁frankly	-12851
▁människan	-12852
gångar	-12853
▁basel	-12854
▁halvt	-12855
edelhav	-12856
uarters	-12857
▁openly	-12858
▁väcker	-12859
▁pillars	-12860
▁topical	-12861
▁findings	-12862
▁overlook	-12863
▁efterlyser	-12864
▁inappropriate	-12865
▁industripolitik	-12866
ulous	-12867
▁ended	-12868
▁kulturer	-12869
▁authorised	-12870
▁indikatorer	-12871
▁herman	-12872
▁läkare	-12873
▁förhindrar	-12874
▁travelling	-12875
▁fördelningen	-12876
heim	-12877
▁välk	-12878
▁spara	-12879
▁passer	-12880
▁grönbok	-12881
paciteten	-12882
▁byråkratiska	-12883
▁uc	-12884
▁drop	-12885
▁inher	-12886
▁schmid	-12887
▁wellbe	-12888
▁åratal	-12889
bestämmelser	-12890
▁amne	-12891
▁advok	-12892
▁mandel	-12893
▁konsumt	-12894
förfaranden	-12895
▁frågeställ	-12896
▁erkännandet	-12897
▁agg	-12898
▁cos	-12899
▁mosc	-12900
anschen	-12901
▁sanktion	-12902
▁försening	-12903
▁åtskilliga	-12904
onym	-12905
▁race	-12906
▁feature	-12907
▁iakttag	-12908
enophobia	-12909
▁wellbeing	-12910
▁constraints	-12911
männ	-12912
▁bem	-12913
ewise	-12914
▁pace	-12915
▁fylla	-12916
▁folkmord	-12917
▁obstacle	-12918
▁bedömningen	-12919
ollar	-12920
▁aktie	-12921
▁insec	-12922
▁greense	-12923
▁telling	-12924
▁optimism	-12925
▁initiated	-12926
▁references	-12927
▁ankny	-12928
▁appalling	-12929
ults	-12930
▁dereg	-12931
▁påpekas	-12932
▁offences	-12933
▁frivilligt	-12934
▁presidencys	-12935
änstedirektivet	-12936
tv	-12937
▁glada	-12938
▁mccree	-12939
▁relief	-12940
▁besökte	-12941
▁immateri	-12942
▁comparable	-12943
▁producerar	-12944
▁preparatory	-12945
▁randområdena	-12946
före	-12947
skriv	-12948
▁riktade	-12949
▁tonfisk	-12950
tens	-12951
▁nons	-12952
släget	-12953
▁bases	-12954
▁assured	-12955
▁avbröts	-12956
▁forestry	-12957
▁kulturar	-12958
▁likewise	-12959
▁realistiska	-12960
▁arbetsgivare	-12961
▁coordinating	-12962
▁overwhelming	-12963
ili	-12964
onik	-12965
▁gag	-12966
▁lud	-12967
▁filos	-12968
▁trett	-12969
▁barrot	-12970
▁displa	-12971
▁värdet	-12972
gruppens	-12973
▁isolation	-12974
sperspektiv	-12975
ugoslaviska	-12976
▁solidariteten	-12977
▁transposition	-12978
▁systematically	-12979
fas	-12980
▁börda	-12981
▁återgå	-12982
▁onto	-12983
▁vigor	-12984
▁paramet	-12985
▁besviken	-12986
▁generate	-12987
▁remained	-12988
produktion	-12989
▁incidents	-12990
deb	-12991
▁clu	-12992
▁eta	-12993
▁uttöm	-12994
▁komplement	-12995
slagstiftning	-12996
aw	-12997
▁egf	-12998
cific	-12999
▁chef	-13000
▁tiot	-13001
▁spender	-13002
bindelser	-13003
▁obtaining	-13004
▁ändringarna	-13005
▁morgondagens	-13006
ytt	-13007
isted	-13008
▁ball	-13009
▁guil	-13010
▁papper	-13011
▁smoking	-13012
▁kvalifikationer	-13013
bemynd	-13014
▁spann	-13015
isations	-13016
▁fredliga	-13017
▁överhuvud	-13018
▁förpliktelser	-13019
orda	-13020
▁rehn	-13021
▁embark	-13022
▁missly	-13023
▁demanded	-13024
▁normally	-13025
▁millennie	-13026
▁genomfördes	-13027
▁avskaffandet	-13028
rup	-13029
kunskap	-13030
▁cancell	-13031
▁förhoppning	-13032
▁nan	-13033
varon	-13034
▁andan	-13035
▁camps	-13036
itiativ	-13037
▁caucas	-13038
▁decade	-13039
▁onödiga	-13040
▁tampere	-13041
▁upplevt	-13042
▁monopoly	-13043
▁tillåtas	-13044
▁civilians	-13045
▁games	-13046
▁dissemin	-13047
▁differenti	-13048
▁interference	-13049
chi	-13050
kvot	-13051
▁ore	-13052
▁mist	-13053
esiska	-13054
portion	-13055
▁laglig	-13056
▁militärt	-13057
▁survival	-13058
▁utformning	-13059
bot	-13060
istans	-13061
▁timor	-13062
▁förfly	-13063
uridiskt	-13064
▁städerna	-13065
▁criticised	-13066
▁förevändning	-13067
ygen	-13068
▁intag	-13069
iko	-13070
vot	-13071
uman	-13072
metod	-13073
sfris	-13074
▁ränt	-13075
▁cells	-13076
▁discipline	-13077
▁minskningen	-13078
po	-13079
ommod	-13080
▁protein	-13081
rapporten	-13082
▁accommod	-13083
▁estimates	-13084
▁försvinna	-13085
▁historisk	-13086
▁sydafrika	-13087
try	-13088
onal	-13089
▁biom	-13090
▁migr	-13091
bemyndig	-13092
äck	-13093
örs	-13094
gick	-13095
▁heter	-13096
▁inleds	-13097
▁placing	-13098
▁stopped	-13099
▁författare	-13100
▁finansierings	-13101
▁stål	-13102
aspekt	-13103
repres	-13104
▁tunga	-13105
▁värna	-13106
▁topics	-13107
▁välkommen	-13108
▁välkomnas	-13109
▁inrättades	-13110
▁cofinancing	-13111
▁translation	-13112
▁proportional	-13113
berop	-13114
utors	-13115
▁hague	-13116
▁madeira	-13117
▁station	-13118
▁proactive	-13119
▁arresterings	-13120
▁bero	-13121
▁debat	-13122
▁posts	-13123
▁guilty	-13124
▁åberop	-13125
▁besides	-13126
▁assessed	-13127
▁överföra	-13128
▁facilitating	-13129
berätt	-13130
▁tyder	-13131
▁tammer	-13132
▁recorded	-13133
▁constituency	-13134
▁socialistiska	-13135
▁förändringarna	-13136
▁skattebetalarna	-13137
▁pron	-13138
ressed	-13139
▁champ	-13140
▁safer	-13141
develop	-13142
▁belast	-13143
▁uppnår	-13144
▁medverka	-13145
▁contributes	-13146
▁bilindustrin	-13147
▁konventioner	-13148
▁återupprätta	-13149
avier	-13150
▁utgå	-13151
▁missnö	-13152
▁enskilt	-13153
▁interop	-13154
▁medicinal	-13155
▁oegentligheter	-13156
ios	-13157
oyed	-13158
▁enade	-13159
▁tacis	-13160
▁naturligt	-13161
anläggningar	-13162
▁automatically	-13163
mak	-13164
▁wi	-13165
▁resc	-13166
ancies	-13167
▁panel	-13168
▁kvinna	-13169
▁fysiska	-13170
▁minimal	-13171
▁oansvar	-13172
▁försoning	-13173
oris	-13174
acerb	-13175
▁denoun	-13176
▁brottsl	-13177
▁rimliga	-13178
▁budgetar	-13179
▁principal	-13180
▁registrering	-13181
card	-13182
ssal	-13183
▁skar	-13184
vister	-13185
▁remit	-13186
uridisk	-13187
▁domare	-13188
▁partiet	-13189
▁worried	-13190
▁ideological	-13191
▁recognising	-13192
kult	-13193
dagens	-13194
▁costa	-13195
▁skilda	-13196
▁stating	-13197
▁slovenia	-13198
▁subs	-13199
▁misle	-13200
▁stärkt	-13201
▁avoiding	-13202
▁deciding	-13203
▁tillåtna	-13204
▁ministern	-13205
yle	-13206
mässigt	-13207
▁temper	-13208
▁applaud	-13209
▁obalans	-13210
▁uttalat	-13211
▁liikanen	-13212
▁spannmål	-13213
▁stresses	-13214
▁talartid	-13215
▁tydlighet	-13216
▁befolkningens	-13217
▁pn	-13218
kont	-13219
oser	-13220
yday	-13221
älpen	-13222
▁hindren	-13223
▁förödande	-13224
▁thoroughly	-13225
▁förberedande	-13226
▁oron	-13227
▁fattats	-13228
▁fastställda	-13229
ssitu	-13230
▁victory	-13231
▁formally	-13232
▁påverkan	-13233
▁förkastar	-13234
▁förluster	-13235
▁förorening	-13236
▁föreskriver	-13237
▁socialfonden	-13238
▁indep	-13239
samhäll	-13240
▁lesson	-13241
▁complied	-13242
▁kostnads	-13243
▁realised	-13244
▁retirement	-13245
▁appreciation	-13246
på	-13247
▁vind	-13248
▁öron	-13249
▁intim	-13250
▁attent	-13251
▁indepth	-13252
▁channels	-13253
▁kir	-13254
ingly	-13255
eneral	-13256
▁förbin	-13257
▁latvia	-13258
▁pesticides	-13259
▁democracies	-13260
▁meningsskil	-13261
▁nationalism	-13262
ardo	-13263
egrip	-13264
ierad	-13265
▁hiva	-13266
ukdomen	-13267
▁hälsos	-13268
▁refusal	-13269
cla	-13270
▁ille	-13271
▁tens	-13272
▁krish	-13273
kningen	-13274
▁banana	-13275
▁lägsta	-13276
▁unpreced	-13277
▁livestock	-13278
▁arbetsordning	-13279
onds	-13280
▁ana	-13281
▁stu	-13282
▁wished	-13283
▁utvecklar	-13284
▁emphasises	-13285
▁kemikalier	-13286
ione	-13287
▁hiv	-13288
fordon	-13289
▁könen	-13290
▁confed	-13291
▁skulden	-13292
▁creative	-13293
▁satellit	-13294
▁tänkbara	-13295
▁definieras	-13296
▁dramatiska	-13297
▁ombudsmannens	-13298
önska	-13299
▁tuna	-13300
normer	-13301
▁godtas	-13302
▁sensit	-13303
▁helsing	-13304
▁stadium	-13305
▁everyday	-13306
▁reminded	-13307
▁framförts	-13308
▁stimulate	-13309
▁withdrawn	-13310
dest	-13311
▁wake	-13312
ignation	-13313
kommission	-13314
▁addresses	-13315
▁ecosystem	-13316
▁greenseuropean	-13317
enna	-13318
work	-13319
▁dual	-13320
▁root	-13321
▁orsakat	-13322
▁förvånad	-13323
▁kraftfull	-13324
▁ministrar	-13325
myndigheten	-13326
▁modernisera	-13327
▁bei	-13328
lokal	-13329
skrav	-13330
rygghet	-13331
▁likväl	-13332
▁studera	-13333
▁åsikten	-13334
▁delicate	-13335
▁personlig	-13336
▁regionalt	-13337
information	-13338
▁köpenhamnsk	-13339
▁beneficiaries	-13340
▁gsp	-13341
▁hörn	-13342
▁delet	-13343
▁logiskt	-13344
▁kriminella	-13345
▁långsiktigt	-13346
▁cold	-13347
▁tråk	-13348
▁restri	-13349
▁genocide	-13350
▁utomlands	-13351
▁mainstreaming	-13352
öarna	-13353
▁cart	-13354
alogue	-13355
▁källor	-13356
gripande	-13357
sstandard	-13358
▁caucasus	-13359
▁klimatet	-13360
▁southeast	-13361
▁instability	-13362
▁incidentally	-13363
▁copyr	-13364
▁intar	-13365
▁vitorino	-13366
befolkningen	-13367
▁disproportion	-13368
▁nicefördraget	-13369
board	-13370
▁borg	-13371
▁bour	-13372
▁löser	-13373
▁anständ	-13374
▁tvivlar	-13375
▁motsatsen	-13376
▁conscience	-13377
prå	-13378
sbr	-13379
chell	-13380
▁ensam	-13381
▁gases	-13382
▁primär	-13383
▁skolan	-13384
▁dumpning	-13385
▁sustained	-13386
▁transnational	-13387
▁rådsordföranden	-13388
inki	-13389
▁accus	-13390
▁unprecedented	-13391
▁översvämningar	-13392
back	-13393
▁bostad	-13394
▁estland	-13395
▁biological	-13396
▁thessal	-13397
▁malmström	-13398
▁scheduled	-13399
▁criticisms	-13400
▁demonstrations	-13401
inas	-13402
▁narkot	-13403
▁speciell	-13404
▁inträffat	-13405
▁utskotten	-13406
▁orientation	-13407
▁regelverket	-13408
▁förverkligas	-13409
▁kub	-13410
▁otro	-13411
▁smid	-13412
▁town	-13413
▁reviewed	-13414
▁webs	-13415
▁angola	-13416
▁langen	-13417
▁uppmuntras	-13418
abu	-13419
cre	-13420
stör	-13421
▁unp	-13422
▁empty	-13423
▁throw	-13424
▁adding	-13425
▁räckvidd	-13426
▁comnumnum	-13427
▁ppegruppen	-13428
▁arrangement	-13429
▁förlängning	-13430
▁europamedelhav	-13431
▁foods	-13432
▁längs	-13433
▁marina	-13434
▁heavily	-13435
▁passing	-13436
▁removing	-13437
▁illegally	-13438
▁skottland	-13439
▁verksamma	-13440
▁anledningar	-13441
▁avskaffande	-13442
▁secretariat	-13443
▁obligatoriskt	-13444
▁administrations	-13445
▁bg	-13446
▁bea	-13447
erestim	-13448
savtalen	-13449
▁olympic	-13450
▁signaler	-13451
▁sträcker	-13452
▁underestim	-13453
▁uttalandet	-13454
clude	-13455
▁dair	-13456
rogram	-13457
ämvikt	-13458
▁kod	-13459
uster	-13460
▁maur	-13461
▁publish	-13462
▁avslutar	-13463
▁tidsfris	-13464
▁nordirland	-13465
▁besparingar	-13466
öda	-13467
agog	-13468
räda	-13469
▁won	-13470
verken	-13471
▁möter	-13472
▁resurs	-13473
▁stolta	-13474
▁vackra	-13475
insatser	-13476
▁allting	-13477
▁undersk	-13478
▁förlänga	-13479
▁privatliv	-13480
▁atmosphere	-13481
▁elimination	-13482
ionerna	-13483
▁gammal	-13484
vens	-13485
ikapp	-13486
▁adam	-13487
unders	-13488
▁dairy	-13489
▁abandon	-13490
▁analyse	-13491
▁moraliska	-13492
▁plötsligt	-13493
▁parallellt	-13494
▁betydelsefull	-13495
▁celeb	-13496
▁enades	-13497
▁computer	-13498
▁orsakade	-13499
▁disadvantage	-13500
▁born	-13501
▁batter	-13502
▁commod	-13503
▁räknas	-13504
▁pipeline	-13505
▁förutsatt	-13506
▁ratificeringen	-13507
▁ryg	-13508
▁adekv	-13509
▁domar	-13510
▁shame	-13511
lösning	-13512
▁illness	-13513
▁väpnade	-13514
▁returned	-13515
▁investerare	-13516
hov	-13517
ogas	-13518
▁ägnas	-13519
▁produkterna	-13520
▁thessalonik	-13521
▁contradiction	-13522
▁rymd	-13523
▁audit	-13524
punkten	-13525
sekvens	-13526
▁modest	-13527
▁generous	-13528
▁ekosystem	-13529
▁anföranden	-13530
▁beslutsamt	-13531
iguous	-13532
lusive	-13533
▁split	-13534
paketet	-13535
▁arises	-13536
▁concep	-13537
▁vienna	-13538
▁tillåts	-13539
▁oskyldiga	-13540
▁preliminära	-13541
ih	-13542
skoll	-13543
▁specul	-13544
sbudgeten	-13545
▁hanterar	-13546
▁occupied	-13547
▁försvaret	-13548
▁industrier	-13549
▁reproductive	-13550
▁bird	-13551
▁tidig	-13552
ploited	-13553
▁avsett	-13554
▁numera	-13555
▁praise	-13556
▁inledde	-13557
▁passion	-13558
▁predict	-13559
▁framfört	-13560
▁messages	-13561
▁godkännandet	-13562
▁cu	-13563
▁lita	-13564
▁depth	-13565
▁falla	-13566
▁towns	-13567
▁uncon	-13568
process	-13569
▁glömmer	-13570
▁solving	-13571
▁kategori	-13572
▁mccreevy	-13573
▁pointing	-13574
▁välkommet	-13575
▁witnessed	-13576
▁gy	-13577
▁utlov	-13578
▁rollen	-13579
▁staden	-13580
▁reverse	-13581
▁utgifts	-13582
▁arrested	-13583
▁persuade	-13584
▁meanwhile	-13585
▁workforce	-13586
▁responding	-13587
aria	-13588
▁chie	-13589
▁porn	-13590
▁posed	-13591
▁bortom	-13592
värre	-13593
▁reun	-13594
tremism	-13595
▁abolish	-13596
▁strange	-13597
grupperna	-13598
▁inriktad	-13599
▁åldrande	-13600
▁betalning	-13601
▁clarified	-13602
▁dessvärre	-13603
▁egenskaper	-13604
▁reinforced	-13605
lang	-13606
▁fault	-13607
▁natos	-13608
▁handled	-13609
▁lagring	-13610
▁helsinki	-13611
▁indicates	-13612
kasser	-13613
▁arctic	-13614
▁krävas	-13615
▁incomes	-13616
▁lettland	-13617
▁äventyra	-13618
▁intensivt	-13619
▁användbart	-13620
▁differently	-13621
▁medvetenhet	-13622
▁decommission	-13623
elson	-13624
dragen	-13625
▁lehne	-13626
▁divide	-13627
▁irländ	-13628
▁kurdish	-13629
▁strikes	-13630
▁tammerfors	-13631
▁undersöker	-13632
▁rekommendera	-13633
▁strukturfonder	-13634
ida	-13635
▁lou	-13636
ierat	-13637
ladesh	-13638
▁strål	-13639
ärtligt	-13640
▁buller	-13641
▁integral	-13642
▁planeras	-13643
etten	-13644
▁wien	-13645
▁river	-13646
▁medina	-13647
▁trends	-13648
▁doctors	-13649
▁preferens	-13650
▁separation	-13651
▁disparities	-13652
▁mobilisation	-13653
aded	-13654
▁gmo	-13655
▁copyright	-13656
▁indispens	-13657
▁registered	-13658
döm	-13659
kong	-13660
kulation	-13661
▁varaktig	-13662
sinitiativ	-13663
▁ug	-13664
amped	-13665
ublik	-13666
uarter	-13667
▁lanka	-13668
▁progn	-13669
▁bangladesh	-13670
▁biobränslen	-13671
▁misstroende	-13672
▁irresponsible	-13673
▁yttra	-13674
▁skyldig	-13675
▁advisory	-13676
▁energies	-13677
▁uppgifts	-13678
▁utesluta	-13679
▁förvärras	-13680
▁intresset	-13681
▁åtskillnad	-13682
ckor	-13683
ompl	-13684
▁mine	-13685
▁neoli	-13686
▁warming	-13687
▁anywhere	-13688
▁securing	-13689
▁ultimate	-13690
▁monopolies	-13691
▁ledamöternas	-13692
▁thessaloniki	-13693
▁identification	-13694
▁befä	-13695
▁mann	-13696
▁seas	-13697
▁toys	-13698
▁förvar	-13699
▁härrör	-13700
trafiken	-13701
▁palestinierna	-13702
▁malt	-13703
▁asian	-13704
▁förfär	-13705
myndighet	-13706
producent	-13707
▁limiting	-13708
▁kraftfulla	-13709
ståd	-13710
ifiable	-13711
▁ombord	-13712
▁hivaids	-13713
▁rådfråg	-13714
▁informerade	-13715
ivitet	-13716
priset	-13717
sikterna	-13718
▁programp	-13719
▁slovenien	-13720
▁acceptabelt	-13721
▁manufacturing	-13722
anskt	-13723
istor	-13724
rivna	-13725
▁fåtal	-13726
vakning	-13727
▁ensures	-13728
▁förfogar	-13729
▁abolished	-13730
▁attempting	-13731
▁förvirring	-13732
penses	-13733
▁utformas	-13734
▁frustration	-13735
▁socioekonomiska	-13736
char	-13737
▁luftt	-13738
▁skade	-13739
uantity	-13740
esektorn	-13741
resultat	-13742
▁consists	-13743
▁promotes	-13744
▁yttranden	-13745
▁bekräftade	-13746
▁presidencies	-13747
▁relationerna	-13748
▁uppmuntrande	-13749
itära	-13750
▁gold	-13751
▁prud	-13752
▁utfärda	-13753
▁orättvisa	-13754
sbestämmelser	-13755
▁investerings	-13756
▁totalitarian	-13757
öser	-13758
försäl	-13759
▁syfta	-13760
▁minder	-13761
▁rumäns	-13762
uiv	-13763
lubb	-13764
▁höger	-13765
▁styrs	-13766
▁tempt	-13767
▁energib	-13768
▁förpack	-13769
▁hushåll	-13770
▁klockan	-13771
läggningarna	-13772
▁ansträngning	-13773
atri	-13774
▁ari	-13775
hardt	-13776
▁opro	-13777
▁andor	-13778
▁accompl	-13779
▁beklaga	-13780
▁kammarens	-13781
▁transplant	-13782
▁definitions	-13783
▁anmärkningar	-13784
▁tål	-13785
▁disgra	-13786
▁förank	-13787
▁fördrö	-13788
▁utgörs	-13789
▁convict	-13790
▁debatterna	-13791
▁suspension	-13792
ower	-13793
trad	-13794
▁spr	-13795
▁pick	-13796
stödet	-13797
▁modet	-13798
▁bördan	-13799
▁caught	-13800
▁fattades	-13801
▁publicly	-13802
▁ledningen	-13803
▁budgetplan	-13804
bra	-13805
lika	-13806
polit	-13807
anslut	-13808
▁befri	-13809
▁donor	-13810
▁wales	-13811
reglering	-13812
▁governed	-13813
▁remarkable	-13814
▁indispensable	-13815
iles	-13816
pace	-13817
sbek	-13818
befog	-13819
▁döma	-13820
▁saud	-13821
▁inland	-13822
▁nonpro	-13823
skningar	-13824
▁cypriot	-13825
▁seriöst	-13826
▁concepts	-13827
▁överflöd	-13828
rehensible	-13829
▁anmärknings	-13830
kop	-13831
akes	-13832
▁hoc	-13833
ciplin	-13834
▁spekt	-13835
▁abortion	-13836
▁dagligen	-13837
▁godtagbart	-13838
▁intressena	-13839
▁multinationals	-13840
llor	-13841
▁ours	-13842
▁stig	-13843
▁moves	-13844
▁skrev	-13845
▁namnet	-13846
▁advances	-13847
▁åtgärden	-13848
▁privatisation	-13849
akis	-13850
efer	-13851
udas	-13852
umär	-13853
▁sir	-13854
uivoc	-13855
porten	-13856
▁cloth	-13857
▁måndag	-13858
▁precedent	-13859
▁övervägande	-13860
▁availability	-13861
▁audiovisuella	-13862
▁reservationer	-13863
ube	-13864
urf	-13865
ämta	-13866
stadt	-13867
▁kända	-13868
▁psych	-13869
▁burmes	-13870
▁radikala	-13871
bekämpning	-13872
läggningen	-13873
▁motsägelse	-13874
▁tillverkning	-13875
▁cfsp	-13876
▁sänd	-13877
lander	-13878
▁poorer	-13879
▁påstår	-13880
▁känslor	-13881
▁skulder	-13882
▁bekymmer	-13883
▁handikapp	-13884
▁innefatta	-13885
hel	-13886
ogs	-13887
löst	-13888
▁farlig	-13889
▁overse	-13890
▁utsatt	-13891
▁lämnade	-13892
resultatet	-13893
säkerheten	-13894
▁branschen	-13895
▁criticise	-13896
▁numnumini	-13897
▁konsumtion	-13898
▁förberedelser	-13899
fartyg	-13900
▁acced	-13901
▁cycle	-13902
▁patri	-13903
bekistan	-13904
▁algeria	-13905
▁invånarna	-13906
▁någonstans	-13907
▁omröstningar	-13908
gt	-13909
▁vlad	-13910
▁oroad	-13911
▁scept	-13912
▁bilden	-13913
▁thinks	-13914
▁åtagit	-13915
▁genetic	-13916
▁confirms	-13917
olf	-13918
▁böge	-13919
▁input	-13920
issible	-13921
▁petition	-13922
habil	-13923
▁ends	-13924
▁osse	-13925
▁vett	-13926
▁ickes	-13927
▁capita	-13928
▁fleets	-13929
▁fusion	-13930
▁berömma	-13931
▁isolated	-13932
▁fåg	-13933
▁academ	-13934
▁served	-13935
emenskap	-13936
▁amnesty	-13937
▁planerna	-13938
kopp	-13939
ioned	-13940
▁strive	-13941
▁överst	-13942
▁rehabil	-13943
▁individer	-13944
somfattande	-13945
▁destination	-13946
▁förbättrade	-13947
▁övertygande	-13948
▁eumedlemsstater	-13949
umul	-13950
liers	-13951
▁sees	-13952
▁facto	-13953
▁köper	-13954
▁kongress	-13955
▁tolerans	-13956
▁bristerna	-13957
▁berlusconi	-13958
▁fundamentalism	-13959
cao	-13960
▁bistå	-13961
regioner	-13962
▁organen	-13963
▁believed	-13964
▁bostäder	-13965
▁narkotik	-13966
▁angelägna	-13967
bestämmande	-13968
▁neoliberal	-13969
ämna	-13970
▁rekry	-13971
▁argent	-13972
▁gather	-13973
▁drabbat	-13974
▁midterm	-13975
▁disgrace	-13976
▁förmågan	-13977
▁irakiska	-13978
▁felaktiga	-13979
▁alternativet	-13980
fria	-13981
rage	-13982
▁mosk	-13983
▁sten	-13984
▁närvara	-13985
▁angeläget	-13986
▁utvidgade	-13987
▁condemnation	-13988
cr	-13989
▁öv	-13990
uela	-13991
▁bryr	-13992
▁gets	-13993
användning	-13994
▁combination	-13995
▁vetenskapligt	-13996
ordan	-13997
▁aiming	-13998
▁störst	-13999
▁malaria	-14000
intressen	-14001
▁inevitable	-14002
▁regulating	-14003
▁arbetsvillkor	-14004
▁erfarenheterna	-14005
sning	-14006
▁units	-14007
▁eurons	-14008
▁incons	-14009
▁präglas	-14010
▁wonderful	-14011
▁relationships	-14012
▁andrabehandling	-14013
▁doors	-14014
▁samvet	-14015
▁statens	-14016
▁upprättas	-14017
▁samordnade	-14018
vit	-14019
▁andre	-14020
▁bevisa	-14021
▁rumänska	-14022
▁workplace	-14023
sprogrammen	-14024
▁medborgaren	-14025
▁överläggningar	-14026
udes	-14027
mande	-14028
▁provoc	-14029
▁framöver	-14030
▁legitima	-14031
▁nordliga	-14032
▁plattform	-14033
▁centralbankens	-14034
erge	-14035
▁arkt	-14036
▁faces	-14037
▁flick	-14038
▁footing	-14039
▁uppmanat	-14040
▁uttalade	-14041
▁bekräftat	-14042
▁överskott	-14043
▁simplifying	-14044
sproduktionen	-14045
▁observatörer	-14046
▁privatisering	-14047
hers	-14048
▁täm	-14049
▁meda	-14050
edelar	-14051
▁diesel	-14052
▁faster	-14053
▁techni	-14054
▁upptäckt	-14055
initiativet	-14056
▁egenföretagare	-14057
▁kny	-14058
▁focuses	-14059
▁algeriet	-14060
▁misstänk	-14061
▁partiets	-14062
▁tekniker	-14063
▁aspirations	-14064
isa	-14065
▁coel	-14066
▁yield	-14067
skapande	-14068
udiciary	-14069
▁debattera	-14070
▁mandelson	-14071
resk	-14072
icism	-14073
▁guide	-14074
[...]
